{
  "0": "\n",
  "1": " ",
  "2": "!",
  "3": "\"",
  "4": "#",
  "5": "$",
  "6": "%",
  "7": "&",
  "8": "'",
  "9": "(",
  "10": ")",
  "11": "*",
  "12": "+",
  "13": ",",
  "14": "-",
  "15": ".",
  "16": "/",
  "17": "0",
  "18": "1",
  "19": "2",
  "20": "3",
  "21": "4",
  "22": "5",
  "23": "6",
  "24": "7",
  "25": "8",
  "26": "9",
  "27": ":",
  "28": ";",
  "29": "<",
  "30": "=",
  "31": ">",
  "32": "?",
  "33": "@",
  "34": "A",
  "35": "B",
  "36": "C",
  "37": "D",
  "38": "E",
  "39": "F",
  "40": "G",
  "41": "H",
  "42": "I",
  "43": "J",
  "44": "K",
  "45": "L",
  "46": "M",
  "47": "N",
  "48": "O",
  "49": "P",
  "50": "Q",
  "51": "R",
  "52": "S",
  "53": "T",
  "54": "U",
  "55": "V",
  "56": "W",
  "57": "X",
  "58": "Y",
  "59": "Z",
  "60": "[",
  "61": "\\",
  "62": "]",
  "63": "^",
  "64": "_",
  "65": "`",
  "66": "a",
  "67": "b",
  "68": "c",
  "69": "d",
  "70": "e",
  "71": "f",
  "72": "g",
  "73": "h",
  "74": "i",
  "75": "j",
  "76": "k",
  "77": "l",
  "78": "m",
  "79": "n",
  "80": "o",
  "81": "p",
  "82": "q",
  "83": "r",
  "84": "s",
  "85": "t",
  "86": "u",
  "87": "v",
  "88": "w",
  "89": "x",
  "90": "y",
  "91": "z",
  "92": "{",
  "93": "}",
  "94": "~",
  "95": "£",
  "96": "§",
  "97": "©",
  "98": "ª",
  "99": "«",
  "100": "­",
  "101": "®",
  "102": "°",
  "103": "±",
  "104": "²",
  "105": "´",
  "106": "·",
  "107": "¹",
  "108": "º",
  "109": "»",
  "110": "¼",
  "111": "½",
  "112": "À",
  "113": "Á",
  "114": "Â",
  "115": "Ã",
  "116": "Ç",
  "117": "É",
  "118": "Ê",
  "119": "Ì",
  "120": "Í",
  "121": "Ò",
  "122": "Ó",
  "123": "Ô",
  "124": "Õ",
  "125": "Ú",
  "126": "à",
  "127": "á",
  "128": "â",
  "129": "ã",
  "130": "ä",
  "131": "ç",
  "132": "è",
  "133": "é",
  "134": "ê",
  "135": "ë",
  "136": "í",
  "137": "ð",
  "138": "ñ",
  "139": "ó",
  "140": "ô",
  "141": "õ",
  "142": "ö",
  "143": "ù",
  "144": "ú",
  "145": "ü",
  "146": "ō",
  "147": "́",
  "148": "‐",
  "149": "–",
  "150": "—",
  "151": "‘",
  "152": "’",
  "153": "“",
  "154": "”",
  "155": "•",
  "156": "…",
  "157": "‹",
  "158": "›",
  "159": "€",
  "160": "。",
  "161": "【",
  "162": "】",
  "163": "〜",
  "164": "ェ",
  "165": "フ",
  "166": "リ",
  "167": "ー",
  "168": "️",
  "169": "！",
  "170": "；",
  "171": " \n",
  "172": "  ",
  "173": " !",
  "174": " \"",
  "175": " #",
  "176": " $",
  "177": " %",
  "178": " &",
  "179": " '",
  "180": " (",
  "181": " )",
  "182": " *",
  "183": " +",
  "184": " ,",
  "185": " -",
  "186": " .",
  "187": " /",
  "188": " 0",
  "189": " 1",
  "190": " 2",
  "191": " 3",
  "192": " 4",
  "193": " 5",
  "194": " 6",
  "195": " 7",
  "196": " 8",
  "197": " 9",
  "198": " :",
  "199": " ;",
  "200": " <",
  "201": " =",
  "202": " >",
  "203": " ?",
  "204": " @",
  "205": " A",
  "206": " B",
  "207": " C",
  "208": " D",
  "209": " E",
  "210": " F",
  "211": " G",
  "212": " H",
  "213": " I",
  "214": " J",
  "215": " K",
  "216": " L",
  "217": " M",
  "218": " N",
  "219": " O",
  "220": " P",
  "221": " Q",
  "222": " R",
  "223": " S",
  "224": " T",
  "225": " U",
  "226": " V",
  "227": " W",
  "228": " X",
  "229": " Y",
  "230": " Z",
  "231": " [",
  "232": " ]",
  "233": " ^",
  "234": " _",
  "235": " a",
  "236": " b",
  "237": " c",
  "238": " d",
  "239": " e",
  "240": " f",
  "241": " g",
  "242": " h",
  "243": " i",
  "244": " j",
  "245": " k",
  "246": " l",
  "247": " m",
  "248": " n",
  "249": " o",
  "250": " p",
  "251": " q",
  "252": " r",
  "253": " s",
  "254": " t",
  "255": " u",
  "256": " v",
  "257": " w",
  "258": " x",
  "259": " y",
  "260": " z",
  "261": " {",
  "262": " ~",
  "263": " £",
  "264": " §",
  "265": " ©",
  "266": " «",
  "267": " ­",
  "268": " °",
  "269": " ±",
  "270": " ²",
  "271": " ·",
  "272": " º",
  "273": " »",
  "274": " ¼",
  "275": " ½",
  "276": " À",
  "277": " Á",
  "278": " Â",
  "279": " É",
  "280": " Ê",
  "281": " Í",
  "282": " Ó",
  "283": " Ô",
  "284": " Ú",
  "285": " à",
  "286": " á",
  "287": " â",
  "288": " é",
  "289": " ê",
  "290": " í",
  "291": " ó",
  "292": " ô",
  "293": " ú",
  "294": " ‐",
  "295": " –",
  "296": " —",
  "297": " ‘",
  "298": " “",
  "299": " ”",
  "300": " …",
  "301": " ›",
  "302": " 【",
  "303": " リ",
  "304": " ️",
  "305": " ；",
  "306": "o ",
  "307": "e ",
  "308": "a ",
  "309": "s ",
  "310": ", ",
  "311": "ar",
  "312": "es",
  "313": "nt",
  "314": "de ",
  "315": "er",
  "316": "m ",
  "317": "\n\n",
  "318": "co",
  "319": "os ",
  "320": "or",
  "321": "as ",
  "322": "do ",
  "323": "qu",
  "324": "al",
  "325": "ent",
  "326": "ão ",
  "327": "in",
  "328": "an",
  "329": "ad",
  "330": "re",
  "331": "ci",
  "332": "is",
  "333": "en",
  "334": "pr",
  "335": "it",
  "336": "em ",
  "337": "el",
  "338": "os",
  "339": "as",
  "340": "es ",
  "341": ".\n\n",
  "342": ". ",
  "343": "am",
  "344": "que ",
  "345": "at",
  "346": "aç",
  "347": "da ",
  "348": "ic",
  "349": "est",
  "350": "par",
  "351": "ar ",
  "352": "ri",
  "353": "u ",
  "354": "ei",
  "355": "em",
  "356": "id",
  "357": "o, ",
  "358": "ai",
  "359": "on",
  "360": "im",
  "361": "er ",
  "362": "di",
  "363": "or ",
  "364": "tr",
  "365": "para ",
  "366": "com",
  "367": "ess",
  "368": "un",
  "369": "um",
  "370": "ur",
  "371": "iv",
  "372": "ação ",
  "373": "a, ",
  "374": "se",
  "375": "al ",
  "376": "il",
  "377": "ul",
  "378": "pro",
  "379": "ant",
  "380": "con",
  "381": "ol",
  "382": "de",
  "383": "ais ",
  "384": "o de ",
  "385": "com ",
  "386": "é ",
  "387": "ab",
  "388": "O ",
  "389": "um ",
  "390": "po",
  "391": "á ",
  "392": "ou ",
  "393": "su",
  "394": "a de ",
  "395": "no ",
  "396": "ament",
  "397": "ec",
  "398": "br",
  "399": "ist",
  "400": "et",
  "401": "iz",
  "402": "ut",
  "403": "ir",
  "404": "ado ",
  "405": "uma ",
  "406": "ag",
  "407": "eir",
  "408": "A ",
  "409": "st",
  "410": "dos ",
  "411": "se ",
  "412": "om",
  "413": "ex",
  "414": "na ",
  "415": "per",
  "416": "oc",
  "417": "por ",
  "418": "ões ",
  "419": "for",
  "420": "ção ",
  "421": "cont",
  "422": "am ",
  "423": "gr",
  "424": "não ",
  "425": "ia ",
  "426": "e, ",
  "427": "ap",
  "428": "ade ",
  "429": "ente ",
  "430": "ando ",
  "431": "av",
  "432": "ig",
  "433": "ada ",
  "434": "so",
  "435": "ári",
  "436": "pre",
  "437": " de ",
  "438": "eit",
  "439": "ac",
  "440": "pel",
  "441": ": ",
  "442": "i ",
  "443": "ed",
  "444": "int",
  "445": "nci",
  "446": "us",
  "447": "ici",
  "448": "o m",
  "449": "20",
  "450": "pl",
  "451": "to",
  "452": "os, ",
  "453": "des",
  "454": "ser",
  "455": "pos",
  "456": "das ",
  "457": "por",
  "458": "eg",
  "459": "inh",
  "460": "res",
  "461": "az",
  "462": "gu",
  "463": "– ",
  "464": "ov",
  "465": "pres",
  "466": "como ",
  "467": "cor",
  "468": "mais ",
  "469": "o e ",
  "470": "form",
  "471": "ênci",
  "472": "vi",
  "473": "uit",
  "474": "ot",
  "475": "a e ",
  "476": "idade ",
  "477": "ass",
  "478": "__",
  "479": "o.\n\n",
  "480": "as, ",
  "481": "E ",
  "482": "ados ",
  "483": "ou",
  "484": "a m",
  "485": "cion",
  "486": "bl",
  "487": "ter",
  "488": " e ",
  "489": "ver",
  "490": "ao ",
  "491": "201",
  "492": "a.\n\n",
  "493": "cl",
  "494": "fic",
  "495": "ei ",
  "496": "ico",
  "497": "idad",
  "498": "este ",
  "499": "es, ",
  "500": " – ",
  "501": "os de ",
  "502": "o. ",
  "503": "o que ",
  "504": "ch",
  "505": "eci",
  "506": "ações ",
  "507": "ativ",
  "508": "açã",
  "509": "end",
  "510": "ores ",
  "511": "ev",
  "512": "iss",
  "513": "eu ",
  "514": "ir ",
  "515": "iment",
  "516": "car",
  "517": "vel",
  "518": "fer",
  "519": "ém ",
  "520": "ob",
  "521": "ser ",
  "522": "as de ",
  "523": "col",
  "524": "o do ",
  "525": "entr",
  "526": "port",
  "527": "og",
  "528": "us ",
  "529": "ens",
  "530": "S ",
  "531": "aliz",
  "532": "sua ",
  "533": "ais",
  "534": "ante ",
  "535": "fo",
  "536": "and",
  "537": "muit",
  "538": "- ",
  "539": "nos ",
  "540": "amb",
  "541": "part",
  "542": "ocê",
  "543": "ret",
  "544": "o\n\n",
  "545": "..",
  "546": "ud",
  "547": "a do ",
  "548": "o da ",
  "549": "enh",
  "550": "esp",
  "551": "amente ",
  "552": "bre ",
  "553": "cas",
  "554": "elh",
  "555": ") ",
  "556": "art",
  "557": "anç",
  "558": "seu ",
  "559": "alh",
  "560": "a. ",
  "561": "al, ",
  "562": "a\n\n",
  "563": "dis",
  "564": "is ",
  "565": "ez",
  "566": "alm",
  "567": "à ",
  "568": "faz",
  "569": "du",
  "570": "cri",
  "571": "as e ",
  "572": "ação de ",
  "573": "os e ",
  "574": "anh",
  "575": "sobre ",
  "576": "min",
  "577": "inter",
  "578": "contr",
  "579": "Est",
  "580": "ult",
  "581": "cur",
  "582": "pod",
  "583": "ica ",
  "584": "Con",
  "585": "são ",
  "586": "cons",
  "587": ";\n\n",
  "588": "óri",
  "589": "outr",
  "590": "feit",
  "591": "você",
  "592": "II",
  "593": "Ar",
  "594": "aqu",
  "595": "tem",
  "596": "mar",
  "597": "ib",
  "598": "af",
  "599": "oss",
  "600": "0 ",
  "601": "!\n\n",
  "602": "Mun",
  "603": "od",
  "604": "pi",
  "605": "vol",
  "606": "nov",
  "607": "esso",
  "608": "endo ",
  "609": "ções ",
  "610": "mas ",
  "611": "ost",
  "612": "cr",
  "613": "a f",
  "614": "adas ",
  "615": "a-",
  "616": "esse ",
  "617": "____",
  "618": "foi ",
  "619": "ar a ",
  "620": "esm",
  "621": "a da ",
  "622": "cer",
  "623": "ES",
  "624": "ing",
  "625": "e de ",
  "626": "itu",
  "627": "a a ",
  "628": "rec",
  "629": "pesso",
  "630": "acion",
  "631": "segu",
  "632": "pelo ",
  "633": "present",
  "634": "eb",
  "635": "eç",
  "636": "! ",
  "637": "ição ",
  "638": "fun",
  "639": "vid",
  "640": "icip",
  "641": "ej",
  "642": "eira ",
  "643": "atr",
  "644": "tu",
  "645": "Art",
  "646": "íci",
  "647": "me ",
  "648": "abalh",
  "649": "ar o ",
  "650": "aut",
  "651": "você ",
  "652": "ador",
  "653": "do",
  "654": "Par",
  "655": "úbl",
  "656": "os.\n\n",
  "657": "tamb",
  "658": "pela ",
  "659": "ilh",
  "660": "ít",
  "661": "seg",
  "662": "ido ",
  "663": "cess",
  "664": "reg",
  "665": "vel ",
  "666": "Qu",
  "667": "alg",
  "668": "seus ",
  "669": "o para ",
  "670": "curs",
  "671": "ari",
  "672": "já ",
  "673": "a s",
  "674": "op",
  "675": "aci",
  "676": "entes ",
  "677": "Al",
  "678": "equ",
  "679": "idades ",
  "680": "pass",
  "681": "está ",
  "682": "inda ",
  "683": "al de ",
  "684": "jet",
  "685": "e.\n\n",
  "686": "fin",
  "687": "post",
  "688": "istr",
  "689": "noss",
  "690": "dest",
  "691": "até ",
  "692": "amos ",
  "693": "ju",
  "694": "agem ",
  "695": "trabalh",
  "696": "viç",
  "697": "tem ",
  "698": "liv",
  "699": "a que ",
  "700": "prov",
  "701": "pon",
  "702": "ment",
  "703": "ão, ",
  "704": "cis",
  "705": "Art. ",
  "706": "prim",
  "707": "dia ",
  "708": "ip",
  "709": "In",
  "710": "ast",
  "711": "almente ",
  "712": "públ",
  "713": "ont",
  "714": "rel",
  "715": "embr",
  "716": "anc",
  "717": "pode ",
  "718": ":\n\n",
  "719": "ico ",
  "720": "ele ",
  "721": "Br",
  "722": "fr",
  "723": "ência ",
  "724": ". O ",
  "725": "asil",
  "726": "também ",
  "727": "sab",
  "728": "Es",
  "729": "para o ",
  "730": "Pr",
  "731": "ter ",
  "732": "ípi",
  "733": "cul",
  "734": "iliz",
  "735": "às ",
  "736": "ni",
  "737": "soci",
  "738": "2018",
  "739": "amento ",
  "740": "Com",
  "741": "poss",
  "742": "org",
  "743": "muito ",
  "744": "? ",
  "745": "sem",
  "746": "vez",
  "747": "), ",
  "748": "rev",
  "749": "comp",
  "750": "livr",
  "751": "ação, ",
  "752": "entre ",
  "753": "serviç",
  "754": "ins",
  "755": "quer ",
  "756": "ion",
  "757": "enci",
  "758": "mun",
  "759": "todos ",
  "760": "estr",
  "761": "im ",
  "762": "\n\n\n\n",
  "763": "qual",
  "764": "realiz",
  "765": "e a ",
  "766": "esc",
  "767": "as.\n\n",
  "768": "estão ",
  "769": "antes ",
  "770": "com a ",
  "771": "bem ",
  "772": "ER",
  "773": "pol",
  "774": "inform",
  "775": "ef",
  "776": "edi",
  "777": "empres",
  "778": "vis",
  "779": ". A",
  "780": "nec",
  "781": "M ",
  "782": "inha ",
  "783": "stitu",
  "784": "19",
  "785": "ai ",
  "786": "s, ",
  "787": "mesm",
  "788": "icípi",
  "789": "aniz",
  "790": "eis ",
  "791": "ado, ",
  "792": "man",
  "793": "melh",
  "794": "rib",
  "795": "ans",
  "796": "eiro ",
  "797": "Os ",
  "798": "com o ",
  "799": "tim",
  "800": "rig",
  "801": "mer",
  "802": "es.\n\n",
  "803": "conh",
  "804": " - ",
  "805": "cam",
  "806": "eix",
  "807": "ainda ",
  "808": "a o ",
  "809": "aix",
  "810": "nas ",
  "811": "lu",
  "812": "NT",
  "813": "o a ",
  "814": "ais, ",
  "815": "dev",
  "816": "e\n\n",
  "817": "quando ",
  "818": "ar, ",
  "819": "especi",
  "820": "bo",
  "821": "fazer ",
  "822": "AR",
  "823": "sem ",
  "824": "OR",
  "825": ",\n\n",
  "826": "o em ",
  "827": "pró",
  "828": "e o ",
  "829": "1 ",
  "830": "éri",
  "831": "ific",
  "832": "ort",
  "833": "É ",
  "834": "aí",
  "835": "mai",
  "836": "qual ",
  "837": "-se ",
  "838": "ministr",
  "839": "gram",
  "840": "icas ",
  "841": "ós ",
  "842": "ens ",
  "843": "apresent",
  "844": " (",
  "845": "suas ",
  "846": "alt",
  "847": "pois ",
  "848": "será ",
  "849": "aos ",
  "850": "El",
  "851": "dad",
  "852": "oj",
  "853": "De",
  "854": "hor",
  "855": "ument",
  "856": "e. ",
  "857": "a l",
  "858": "a para ",
  "859": "a d",
  "860": "dade ",
  "861": "os que ",
  "862": "uc",
  "863": "a em ",
  "864": "DE ",
  "865": "CO",
  "866": "I – ",
  "867": "envol",
  "868": "organiz",
  "869": "up",
  "870": "mo",
  "871": "ação do ",
  "872": "sim",
  "873": "li",
  "874": "DO ",
  "875": "cada ",
  "876": "val",
  "877": "cu",
  "878": "aj",
  "879": "ert",
  "880": "utiliz",
  "881": "ará ",
  "882": "orn",
  "883": "Municípi",
  "884": "12",
  "885": "cap",
  "886": ".\n\n\n\n",
  "887": "dut",
  "888": "icos ",
  "889": "atur",
  "890": "lic",
  "891": "?\n\n",
  "892": "ind",
  "893": "necess",
  "894": "anto ",
  "895": "eder",
  "896": "import",
  "897": "vest",
  "898": "ite ",
  "899": "10",
  "900": "ó ",
  "901": "imento ",
  "902": "Brasil",
  "903": "as que ",
  "904": "os\n\n",
  "905": "os. ",
  "906": "ân",
  "907": "xim",
  "908": "process",
  "909": "ori",
  "910": "atu",
  "911": "erá ",
  "912": "enç",
  "913": "!!",
  "914": "egr",
  "915": "5 ",
  "916": "prof",
  "917": "vai ",
  "918": "________",
  "919": "; ",
  "920": "diret",
  "921": "Im",
  "922": "arr",
  "923": "át",
  "924": "trat",
  "925": "ário ",
  "926": "ível ",
  "927": "no",
  "928": "ente, ",
  "929": "pont",
  "930": "ulh",
  "931": "precis",
  "932": "sol",
  "933": "corr",
  "934": "red",
  "935": "fi",
  "936": "EST",
  "937": "produt",
  "938": "ger",
  "939": "ador ",
  "940": "4 ",
  "941": "Ex",
  "942": "”, ",
  "943": "istem",
  "944": "Pre",
  "945": "ica, ",
  "946": "aul",
  "947": "emos ",
  "948": "as. ",
  "949": "veis ",
  "950": "dire",
  "951": "vers",
  "952": "esta ",
  "953": "ela ",
  "954": "ês ",
  "955": "prin",
  "956": "ar e ",
  "957": "tiv",
  "958": "ord",
  "959": "ven",
  "960": "o: ",
  "961": "arm",
  "962": "aú",
  "963": "ários ",
  "964": "y ",
  "965": "ilidade ",
  "966": "açõ",
  "967": "ora ",
  "968": "essa ",
  "969": "indo ",
  "970": "rg",
  "971": "ren",
  "972": "ato ",
  "973": "QU",
  "974": "3 ",
  "975": "cel",
  "976": "ção de ",
  "977": "pri",
  "978": "o l",
  "979": "tenh",
  "980": "sej",
  "981": "2018: ",
  "982": "ação e ",
  "983": "os da ",
  "984": "escol",
  "985": "abel",
  "986": "Municip",
  "987": "err",
  "988": "quer",
  "989": "ito ",
  "990": "qualquer ",
  "991": "todos os ",
  "992": "ista ",
  "993": "son",
  "994": "peri",
  "995": "trans",
  "996": "a-f",
  "997": "respon",
  "998": "ida ",
  "999": "AL",
  "1000": "del",
  "1001": "ânci",
  "1002": "orm",
  "1003": "que o ",
  "1004": "gost",
  "1005": "al e ",
  "1006": "IS",
  "1007": "São ",
  "1008": "-l",
  "1009": " de j",
  "1010": "envolv",
  "1011": "quis",
  "1012": "au",
  "1013": "ecer ",
  "1014": "temp",
  "1015": "gar",
  "1016": "uns ",
  "1017": "ern",
  "1018": "cert",
  "1019": "al do ",
  "1020": "para a ",
  "1021": "” ",
  "1022": "eri",
  "1023": "plan",
  "1024": "pens",
  "1025": "ava ",
  "1026": ". A ",
  "1027": "os do ",
  "1028": "deix",
  "1029": "fl",
  "1030": "oment",
  "1031": "2 ",
  "1032": "ribu",
  "1033": "IN",
  "1034": "AS ",
  "1035": "mé",
  "1036": "pessoas ",
  "1037": "º ",
  "1038": "undo ",
  "1039": "pre ",
  "1040": "as\n\n",
  "1041": "ÃO ",
  "1042": "âmar",
  "1043": "segur",
  "1044": "program",
  "1045": "diz",
  "1046": "of",
  "1047": "An",
  "1048": "Para ",
  "1049": "Re",
  "1050": "produ",
  "1051": "quem ",
  "1052": "administr",
  "1053": "o é ",
  "1054": "es de ",
  "1055": "vida ",
  "1056": "ext",
  "1057": "Não ",
  "1058": "ofer",
  "1059": "ism",
  "1060": "pes",
  "1061": "Em ",
  "1062": "ão de ",
  "1063": "loc",
  "1064": "press",
  "1065": "oria ",
  "1066": "e e ",
  "1067": "só ",
  "1068": "cois",
  "1069": "Di",
  "1070": "om ",
  "1071": "hist",
  "1072": "acor",
  "1073": "il ",
  "1074": "agr",
  "1075": "iç",
  "1076": "eciment",
  "1077": "etr",
  "1078": "onde ",
  "1079": "olh",
  "1080": "dem",
  "1081": "pu",
  "1082": "serv",
  "1083": "projet",
  "1084": "ers",
  "1085": "Un",
  "1086": "cip",
  "1087": "crit",
  "1088": "gi",
  "1089": "as do ",
  "1090": "aram ",
  "1091": "o, 2018: ",
  "1092": "... ",
  "1093": "igo ",
  "1094": "olog",
  "1095": "Mar",
  "1096": "irm",
  "1097": "RE",
  "1098": "aplic",
  "1099": "\" ",
  "1100": "or, ",
  "1101": "Câmar",
  "1102": "cos ",
  "1103": "o n",
  "1104": "a n",
  "1105": "anos ",
  "1106": "adores ",
  "1107": "eles ",
  "1108": "dois ",
  "1109": "event",
  "1110": "ission",
  "1111": "o s",
  "1112": "mei",
  "1113": "o mais ",
  "1114": "15",
  "1115": "men",
  "1116": "tudo ",
  "1117": "fal",
  "1118": "e em ",
  "1119": "En",
  "1120": "encontr",
  "1121": "ME",
  "1122": "...\n\n",
  "1123": ").\n\n",
  "1124": "funcion",
  "1125": "OS ",
  "1126": "18",
  "1127": "Feder",
  "1128": "ado de ",
  "1129": "e do ",
  "1130": "todo ",
  "1131": "a t",
  "1132": "Eu ",
  "1133": ")\n\n",
  "1134": "6 ",
  "1135": "princip",
  "1136": "ach",
  "1137": "sub",
  "1138": "dur",
  "1139": "bar",
  "1140": "ES ",
  "1141": "resp",
  "1142": "outros ",
  "1143": "cli",
  "1144": "CI",
  "1145": "ultur",
  "1146": "ve",
  "1147": "bat",
  "1148": "receb",
  "1149": "úl",
  "1150": "volt",
  "1151": "fil",
  "1152": "vez ",
  "1153": "aqui ",
  "1154": "o-",
  "1155": "result",
  "1156": "l ",
  "1157": "ali",
  "1158": "As ",
  "1159": "podem ",
  "1160": "ajud",
  "1161": "ande ",
  "1162": "cheg",
  "1163": "as m",
  "1164": "sent",
  "1165": "ãeste ",
  "1166": "prom",
  "1167": "és ",
  "1168": "e-",
  "1169": "clus",
  "1170": "As",
  "1171": "atend",
  "1172": "áre",
  "1173": "clar",
  "1174": "obr",
  "1175": "a com ",
  "1176": "AD",
  "1177": "aus",
  "1178": "éc",
  "1179": "lim",
  "1180": "os para ",
  "1181": "últim",
  "1182": "ín",
  "1183": "que a ",
  "1184": "a é ",
  "1185": "el ",
  "1186": "ou a ",
  "1187": "inu",
  "1188": "enas ",
  "1189": ", o ",
  "1190": "conc",
  "1191": "compl",
  "1192": "objet",
  "1193": "a: ",
  "1194": "polít",
  "1195": "eira, ",
  "1196": "ar de ",
  "1197": "ement",
  "1198": "sempre ",
  "1199": "ivers",
  "1200": "or de ",
  "1201": "ução ",
  "1202": "al.\n\n",
  "1203": "ano ",
  "1204": "comun",
  "1205": "ru",
  "1206": "ma ",
  "1207": "históri",
  "1208": "erc",
  "1209": "interess",
  "1210": "começ",
  "1211": "som",
  "1212": "ação da ",
  "1213": "profission",
  "1214": "ém",
  "1215": "em, ",
  "1216": "atrav",
  "1217": "lev",
  "1218": "graf",
  "1219": "dez",
  "1220": "er, ",
  "1221": "idos ",
  "1222": "mesmo ",
  "1223": "blem",
  "1224": "Paul",
  "1225": "IV",
  "1226": "Ad",
  "1227": "AN",
  "1228": "und",
  "1229": "te ",
  "1230": "problem",
  "1231": "o de 201",
  "1232": "serão ",
  "1233": "autor",
  "1234": "todas ",
  "1235": "informações ",
  "1236": "idade de ",
  "1237": "moment",
  "1238": "deve ",
  "1239": "es. ",
  "1240": "ece ",
  "1241": "é um ",
  "1242": "intern",
  "1243": "ulg",
  "1244": "ar os ",
  "1245": "equip",
  "1246": "ís",
  "1247": "acont",
  "1248": "AT",
  "1249": "Imagem ",
  "1250": " a ",
  "1251": "II – ",
  "1252": "Su",
  "1253": "IT",
  "1254": "empre",
  "1255": "ão",
  "1256": "ect",
  "1257": "ví",
  "1258": "difer",
  "1259": "o (",
  "1260": "Tr",
  "1261": "leg",
  "1262": "ivo ",
  "1263": "oci",
  "1264": "ás",
  "1265": "ado",
  "1266": "inc",
  "1267": "25",
  "1268": "No ",
  "1269": "junt",
  "1270": "Car",
  "1271": "k ",
  "1272": "oper",
  "1273": "ais e ",
  "1274": "aneir",
  "1275": "Por ",
  "1276": "esper",
  "1277": "publ",
  "1278": "pul",
  "1279": "isc",
  "1280": "desenvolv",
  "1281": "carg",
  "1282": "atóri",
  "1283": "ider",
  "1284": "lh",
  "1285": "grande ",
  "1286": "lin",
  "1287": "idade, ",
  "1288": "condi",
  "1289": "ili",
  "1290": "EM ",
  "1291": "sin",
  "1292": "ên",
  "1293": "fund",
  "1294": "sex",
  "1295": "consegu",
  "1296": "quanto ",
  "1297": "I ",
  "1298": "isl",
  "1299": "te",
  "1300": "dep",
  "1301": "ar as ",
  "1302": "Cont",
  "1303": "ced",
  "1304": "neg",
  "1305": "io ",
  "1306": "há ",
  "1307": "isso ",
  "1308": "Por",
  "1309": "próxim",
  "1310": "ús",
  "1311": "Ent",
  "1312": "seguint",
  "1313": "ál",
  "1314": "utur",
  "1315": "not",
  "1316": "is, ",
  "1317": "11",
  "1318": "OS",
  "1319": "ada, ",
  "1320": "termin",
  "1321": "prest",
  "1322": "es e ",
  "1323": "fam",
  "1324": "andid",
  "1325": "Seg",
  "1326": "amentos ",
  "1327": "nic",
  "1328": "ver ",
  "1329": "rem",
  "1330": "mat",
  "1331": "jog",
  "1332": "ável ",
  "1333": "Prefeit",
  "1334": "ambi",
  "1335": "inici",
  "1336": "e da ",
  "1337": "através ",
  "1338": "ca ",
  "1339": "empl",
  "1340": "foram ",
  "1341": "pag",
  "1342": "abor",
  "1343": "sob",
  "1344": "reir",
  "1345": "sistem",
  "1346": "os em ",
  "1347": "tom",
  "1348": "decor",
  "1349": "inscri",
  "1350": "iz ",
  "1351": "Se ",
  "1352": "o no ",
  "1353": "adr",
  "1354": "Int",
  "1355": "IC",
  "1356": "Am",
  "1357": "exist",
  "1358": "es\n\n",
  "1359": "inf",
  "1360": "saber ",
  "1361": "Você",
  "1362": "hoj",
  "1363": "aria ",
  "1364": "candid",
  "1365": "que não ",
  "1366": "13",
  "1367": "Um ",
  "1368": "divers",
  "1369": "PR",
  "1370": "agens ",
  "1371": "áb",
  "1372": "a no ",
  "1373": "invest",
  "1374": "doc",
  "1375": "ar um ",
  "1376": "alguns ",
  "1377": "eram ",
  "1378": "compr",
  "1379": "dispon",
  "1380": "sal",
  "1381": "200",
  "1382": "XX",
  "1383": "gress",
  "1384": "ór",
  "1385": "o na ",
  "1386": "ico, ",
  "1387": "isso, ",
  "1388": "íveis ",
  "1389": "direit",
  "1390": "mod",
  "1391": "rej",
  "1392": "de\n\n",
  "1393": "ard",
  "1394": "abri",
  "1395": "óg",
  "1396": "Como ",
  "1397": "acordo ",
  "1398": "14",
  "1399": "a C",
  "1400": "ilit",
  "1401": "torn",
  "1402": "clusiv",
  "1403": "áci",
  "1404": "rit",
  "1405": "ível",
  "1406": "as para ",
  "1407": "todas as ",
  "1408": "posição ",
  "1409": "ase ",
  "1410": "a na ",
  "1411": "aria de ",
  "1412": "escolh",
  "1413": "cultur",
  "1414": "assim ",
  "1415": "a re",
  "1416": "ia, ",
  "1417": "durante ",
  "1418": "7 ",
  "1419": "ação",
  "1420": "ítul",
  "1421": "tent",
  "1422": "pal",
  "1423": "sendo ",
  "1424": "desej",
  "1425": "uito ",
  "1426": "poder",
  "1427": "ban",
  "1428": "aprov",
  "1429": "ências ",
  "1430": "idas ",
  "1431": "vist",
  "1432": "ião ",
  "1433": "Com ",
  "1434": "nosso ",
  "1435": "Você ",
  "1436": "Gr",
  "1437": "integr",
  "1438": "apenas ",
  "1439": "Des",
  "1440": "r ",
  "1441": "Ch",
  "1442": "ados, ",
  "1443": "forç",
  "1444": "modo ",
  "1445": "Na ",
  "1446": "constr",
  "1447": "cham",
  "1448": "\n\nO ",
  "1449": "Gost",
  "1450": "ar em ",
  "1451": "apar",
  "1452": "clu",
  "1453": "íd",
  "1454": "mor",
  "1455": "pelos ",
  "1456": "med",
  "1457": "companh",
  "1458": "fe",
  "1459": "primeiro ",
  "1460": "estud",
  "1461": ", que ",
  "1462": "umas ",
  "1463": "ições ",
  "1464": "control",
  "1465": "outras ",
  "1466": "ina ",
  "1467": "caus",
  "1468": "víde",
  "1469": "ganh",
  "1470": "praz",
  "1471": "dever",
  "1472": "erv",
  "1473": "Lei ",
  "1474": "ang",
  "1475": "ong",
  "1476": "mit",
  "1477": "tur",
  "1478": "ular",
  "1479": "consider",
  "1480": "e que ",
  "1481": "pouc",
  "1482": "continu",
  "1483": "III – ",
  "1484": "ecut",
  "1485": "estabel",
  "1486": "lei",
  "1487": "íst",
  "1488": "compet",
  "1489": "adu",
  "1490": "conv",
  "1491": "nom",
  "1492": "o por ",
  "1493": "garant",
  "1494": "estiv",
  "1495": "depois ",
  "1496": "acess",
  "1497": "dr",
  "1498": "me",
  "1499": "on ",
  "1500": "ow",
  "1501": "lanç",
  "1502": "AS",
  "1503": "dias ",
  "1504": "após ",
  "1505": "bol",
  "1506": "stituição ",
  "1507": "Pl",
  "1508": "DA ",
  "1509": "Org",
  "1510": "22",
  "1511": "ência, ",
  "1512": "edade ",
  "1513": "ação dos ",
  "1514": "alidade ",
  "1515": "ada de ",
  "1516": " do ",
  "1517": "econ",
  "1518": "arqu",
  "1519": "met",
  "1520": "êm ",
  "1521": "era ",
  "1522": "o t",
  "1523": "brasil",
  "1524": "U ",
  "1525": "dig",
  "1526": "perí",
  "1527": "ado por ",
  "1528": "ax",
  "1529": "dom",
  "1530": "aliment",
  "1531": "merc",
  "1532": "mais de ",
  "1533": "concurs",
  "1534": "além ",
  "1535": "bast",
  "1536": "public",
  "1537": "amento, ",
  "1538": "defin",
  "1539": "al da ",
  "1540": "de que ",
  "1541": "vag",
  "1542": "o com ",
  "1543": "________________",
  "1544": "conf",
  "1545": "16",
  "1546": "def",
  "1547": "represent",
  "1548": "ident",
  "1549": "sobre a ",
  "1550": "sobre o ",
  "1551": "Além ",
  "1552": "coloc",
  "1553": "hom",
  "1554": "estu",
  "1555": "am a ",
  "1556": "Mas ",
  "1557": "exempl",
  "1558": "duas ",
  "1559": "EN",
  "1560": "...",
  "1561": "ação.\n\n",
  "1562": "simpl",
  "1563": "inst",
  "1564": "Cons",
  "1565": "ar uma ",
  "1566": "espaç",
  "1567": "iu ",
  "1568": "forma ",
  "1569": "escrit",
  "1570": "o dos ",
  "1571": "unh",
  "1572": "faz ",
  "1573": "itóri",
  "1574": "pequ",
  "1575": "amig",
  "1576": "). ",
  "1577": "Gu",
  "1578": "São Paul",
  "1579": "abr",
  "1580": "baix",
  "1581": "respeit",
  "1582": "tot",
  "1583": "ender ",
  "1584": "mot",
  "1585": "”\n\n",
  "1586": "importante ",
  "1587": "porque ",
  "1588": "% ",
  "1589": "ww",
  "1590": "amento de ",
  "1591": "saú",
  "1592": "serviços ",
  "1593": "icamente ",
  "1594": "possib",
  "1595": "esses ",
  "1596": "possu",
  "1597": "det",
  "1598": "ostr",
  "1599": "é o ",
  "1600": "fort",
  "1601": "coment",
  "1602": "$ ",
  "1603": "Pres",
  "1604": "8 ",
  "1605": "popul",
  "1606": "artigo ",
  "1607": "pert",
  "1608": "ões, ",
  "1609": "ado em ",
  "1610": "dezembr",
  "1611": "oport",
  "1612": "ar com ",
  "1613": "Este ",
  "1614": "cart",
  "1615": "a dos ",
  "1616": "Pro",
  "1617": "úmer",
  "1618": "obrig",
  "1619": "pen",
  "1620": "que se ",
  "1621": "á-l",
  "1622": "objetiv",
  "1623": "00",
  "1624": "acab",
  "1625": "é uma ",
  "1626": "filh",
  "1627": "toda ",
  "1628": "óci",
  "1629": "ler ",
  "1630": "QUE ",
  "1631": "\n\nA ",
  "1632": "dentr",
  "1633": "ais de ",
  "1634": "recurs",
  "1635": "árias ",
  "1636": "mant",
  "1637": "caminh",
  "1638": "bom ",
  "1639": "viv",
  "1640": "ún",
  "1641": "anqu",
  "1642": " M",
  "1643": "ão. ",
  "1644": "amp",
  "1645": "anhã",
  "1646": "paí",
  "1647": "a-feira ",
  "1648": "indic",
  "1649": "poderá ",
  "1650": "águ",
  "1651": "enção ",
  "1652": "Ver",
  "1653": "municip",
  "1654": "al para ",
  "1655": "ações, ",
  "1656": "as da ",
  "1657": "abert",
  "1658": "particip",
  "1659": "crianç",
  "1660": "div",
  "1661": "Nacion",
  "1662": "tip",
  "1663": "muitas ",
  "1664": "\", ",
  "1665": "pode ser ",
  "1666": "ped",
  "1667": "SE",
  "1668": "Ger",
  "1669": "AÇ",
  "1670": "17",
  "1671": "rim",
  "1672": "o ou ",
  "1673": "impl",
  "1674": "públic",
  "1675": "out",
  "1676": "dist",
  "1677": "ar na ",
  "1678": "lar",
  "1679": "log",
  "1680": "minha ",
  "1681": "quart",
  "1682": "atos ",
  "1683": "Soci",
  "1684": "íli",
  "1685": "ando a ",
  "1686": "anu",
  "1687": "ão.\n\n",
  "1688": "apo",
  "1689": "igu",
  "1690": "ário, ",
  "1691": "empreg",
  "1692": "âm",
  "1693": ", a ",
  "1694": "bri",
  "1695": "zinh",
  "1696": "escrev",
  "1697": "/0",
  "1698": "2017",
  "1699": "ay",
  "1700": "odo ",
  "1701": "just",
  "1702": "10 ",
  "1703": "observ",
  "1704": "erci",
  "1705": "própri",
  "1706": "aument",
  "1707": "dic",
  "1708": "que, ",
  "1709": "ão\n\n",
  "1710": "pequen",
  "1711": "fico",
  "1712": "melhor ",
  "1713": "hum",
  "1714": "complet",
  "1715": "ar no ",
  "1716": "sur",
  "1717": "De ",
  "1718": "i, ",
  "1719": ") e ",
  "1720": "o C",
  "1721": "eção ",
  "1722": "Pod",
  "1723": "natur",
  "1724": "gov",
  "1725": "etiv",
  "1726": "efeit",
  "1727": "receit",
  "1728": "primeira ",
  "1729": "três ",
  "1730": "al. ",
  "1731": "a (",
  "1732": "meu ",
  "1733": "deste ",
  "1734": "ável",
  "1735": "o M",
  "1736": "camp",
  "1737": "fever",
  "1738": "a por ",
  "1739": "desde ",
  "1740": "ep",
  "1741": "document",
  "1742": "oportun",
  "1743": "ologia ",
  "1744": " de dezembr",
  "1745": "et ",
  "1746": "gl",
  "1747": "emp",
  "1748": "visit",
  "1749": "com os ",
  "1750": "00 ",
  "1751": "UN",
  "1752": "Município ",
  "1753": "SO",
  "1754": "de, ",
  "1755": "quant",
  "1756": "ência de ",
  "1757": "ular ",
  "1758": "educ",
  "1759": "conheci",
  "1760": "o seu ",
  "1761": "idente ",
  "1762": "IR",
  "1763": "ensin",
  "1764": "DE",
  "1765": "aud",
  "1766": "experi",
  "1767": ".\n\nA ",
  "1768": "pra ",
  "1769": "a M",
  "1770": "Lu",
  "1771": "ing ",
  "1772": "o c",
  "1773": "ág",
  "1774": "h ",
  "1775": "cir",
  "1776": "pedi",
  "1777": "amente, ",
  "1778": "possível ",
  "1779": "ecn",
  "1780": "POR",
  "1781": "prepar",
  "1782": "Uma ",
  "1783": "a um ",
  "1784": "melhor",
  "1785": "vezes ",
  "1786": "\n\nS",
  "1787": "ares ",
  "1788": "orç",
  "1789": "promov",
  "1790": "erno ",
  "1791": "cab",
  "1792": "assist",
  "1793": "o f",
  "1794": "expl",
  "1795": "hab",
  "1796": "ações de ",
  "1797": "hav",
  "1798": "centr",
  "1799": "as em ",
  "1800": "perc",
  "1801": "partici",
  "1802": "fest",
  "1803": "text",
  "1804": "emb",
  "1805": "muitos ",
  "1806": "bus",
  "1807": "afirm",
  "1808": ".\n\nO ",
  "1809": " T",
  "1810": "Univers",
  "1811": "ado pela ",
  "1812": "site ",
  "1813": "elhor ",
  "1814": "a;\n\n",
  "1815": "seguranç",
  "1816": "miss",
  "1817": "ões de ",
  "1818": "im, ",
  "1819": "ris",
  "1820": "sh",
  "1821": "sai",
  "1822": "R$ ",
  "1823": "quei ",
  "1824": "igrej",
  "1825": "arem ",
  "1826": "duz",
  "1827": "ecret",
  "1828": "bi",
  "1829": "téc",
  "1830": "ores, ",
  "1831": "institu",
  "1832": "sit",
  "1833": "fevereir",
  "1834": "arão ",
  "1835": "ado.\n\n",
  "1836": "o das ",
  "1837": "nem ",
  "1838": "icion",
  "1839": "divulg",
  "1840": "grup",
  "1841": "consult",
  "1842": "quest",
  "1843": "leit",
  "1844": "pret",
  "1845": "estou ",
  "1846": "ando o ",
  "1847": "term",
  "1848": "ado e ",
  "1849": "ôn",
  "1850": "Uni",
  "1851": "átic",
  "1852": "contribu",
  "1853": "ao m",
  "1854": "ado do ",
  "1855": "eiros ",
  "1856": "tar",
  "1857": "participar",
  "1858": "édi",
  "1859": "estes ",
  "1860": "algumas ",
  "1861": "MENT",
  "1862": "acontec",
  "1863": "fot",
  "1864": "ado no ",
  "1865": "icit",
  "1866": "sunt",
  "1867": "bon",
  "1868": "a uma ",
  "1869": "segundo ",
  "1870": "30",
  "1871": "super",
  "1872": "avali",
  "1873": "deu ",
  "1874": "person",
  "1875": "alun",
  "1876": "vent",
  "1877": "a-se ",
  "1878": "long",
  "1879": "Que ",
  "1880": "a-feira (",
  "1881": "a S",
  "1882": "alter",
  "1883": "indi",
  "1884": "ID",
  "1885": "AM",
  "1886": "e as ",
  "1887": "poder ",
  "1888": "órg",
  "1889": "sess",
  "1890": "deci",
  "1891": "proced",
  "1892": "inári",
  "1893": "superi",
  "1894": "de uma ",
  "1895": " da ",
  "1896": "itiv",
  "1897": "pot",
  "1898": "UR",
  "1899": "Ele ",
  "1900": "novembr",
  "1901": "eja ",
  "1902": "Fo",
  "1903": "ado. ",
  "1904": "noit",
  "1905": "agu",
  "1906": "AR ",
  "1907": "que os ",
  "1908": "ebr",
  "1909": "êm",
  "1910": "o P",
  "1911": "199",
  "1912": "Municipal ",
  "1913": "administrativ",
  "1914": "Ju",
  "1915": "médi",
  "1916": "exerc",
  "1917": "ambient",
  "1918": "e os ",
  "1919": "estrutur",
  "1920": "estar ",
  "1921": "he ",
  "1922": "IST",
  "1923": "livro ",
  "1924": "traz",
  "1925": "cant",
  "1926": "alist",
  "1927": "mús",
  "1928": "2013",
  "1929": "u, ",
  "1930": "á, ",
  "1931": "lig",
  "1932": "Ser",
  "1933": "o;\n\n",
  "1934": "destin",
  "1935": "Reg",
  "1936": "o, a ",
  "1937": "interesse ",
  "1938": "alv",
  "1939": " de fevereir",
  "1940": "le",
  "1941": "24",
  "1942": "ár",
  "1943": "ét",
  "1944": "lit",
  "1945": "têm ",
  "1946": "nós ",
  "1947": "nossa ",
  "1948": "Muit",
  "1949": "ado para ",
  "1950": "ide",
  "1951": "Câmara ",
  "1952": "norm",
  "1953": "relacion",
  "1954": "pat",
  "1955": ". As ",
  "1956": "ição de ",
  "1957": "propri",
  "1958": "e no ",
  "1959": "ção, ",
  "1960": "a, a ",
  "1961": "entre os ",
  "1962": "cust",
  "1963": "fat",
  "1964": "e para ",
  "1965": "res ",
  "1966": "sucess",
  "1967": "tão ",
  "1968": "Deus ",
  "1969": "tant",
  "1970": "can",
  "1971": "tor",
  "1972": "nossos ",
  "1973": "der ",
  "1974": "que você ",
  "1975": "EM",
  "1976": "IM",
  "1977": "Fr",
  "1978": "l, ",
  "1979": "dinh",
  "1980": "enho ",
  "1981": "Pol",
  "1982": "iber",
  "1983": "medi",
  "1984": "bem",
  "1985": "autoriz",
  "1986": "iníci",
  "1987": "imó",
  "1988": "9 ",
  "1989": "fís",
  "1990": "oz",
  "1991": "preç",
  "1992": "ign",
  "1993": "IA ",
  "1994": "mil ",
  "1995": "ante, ",
  "1996": "Já ",
  "1997": "fu",
  "1998": "mã",
  "1999": "ubr",
  "2000": "elev",
  "2001": "Orgân",
  "2002": "ôm",
  "2003": "vig",
  "2004": "nesta ",
  "2005": "gestão ",
  "2006": "refer",
  "2007": "antes de ",
  "2008": "íl",
  "2009": "nun",
  "2010": "grav",
  "2011": "cres",
  "2012": "detalh",
  "2013": "ca de ",
  "2014": "act",
  "2015": "estava ",
  "2016": "o S",
  "2017": "não é ",
  "2018": "ESTES ",
  "2019": "EL",
  "2020": "oo",
  "2021": "regul",
  "2022": "respons",
  "2023": "condições ",
  "2024": "Constituição ",
  "2025": "jur",
  "2026": "vot",
  "2027": "anteri",
  "2028": "aux",
  "2029": "ção do ",
  "2030": "erg",
  "2031": "anim",
  "2032": "desta ",
  "2033": "lei ",
  "2034": "eiras ",
  "2035": " de janeir",
  "2036": "Segundo ",
  "2037": "cidad",
  "2038": "seja ",
  "2039": "ada em ",
  "2040": "io de ",
  "2041": "maior ",
  "2042": "constru",
  "2043": "rá",
  "2044": "pir",
  "2045": "esqu",
  "2046": "tenho ",
  "2047": ".\n\nA",
  "2048": "vou ",
  "2049": "vão ",
  "2050": "a como ",
  "2051": "negóci",
  "2052": "Jo",
  "2053": "…\n\n",
  "2054": "legisl",
  "2055": "eio ",
  "2056": "membr",
  "2057": "exig",
  "2058": "a) ",
  "2059": "declar",
  "2060": "propost",
  "2061": "planej",
  "2062": "a ou ",
  "2063": "ícul",
  "2064": "rez",
  "2065": "incis",
  "2066": "emente ",
  "2067": "somente ",
  "2068": "com as ",
  "2069": "do, ",
  "2070": "ano, ",
  "2071": "ital ",
  "2072": "ez ",
  "2073": "eú",
  "2074": "perfeit",
  "2075": " S",
  "2076": "eve ",
  "2077": "ais. ",
  "2078": "procur",
  "2079": "AC",
  "2080": "BR",
  "2081": "eitos ",
  "2082": "ias ",
  "2083": "ectiv",
  "2084": "pesquis",
  "2085": "dade de ",
  "2086": "Secret",
  "2087": "terç",
  "2088": "anos, ",
  "2089": "ica e ",
  "2090": "terr",
  "2091": "a-feira, ",
  "2092": "seman",
  "2093": "do que ",
  "2094": "ura ",
  "2095": " de abri",
  "2096": "compre",
  "2097": "bas",
  "2098": "raci",
  "2099": " de novembr",
  "2100": "gunt",
  "2101": "idei",
  "2102": "deve ser ",
  "2103": "inscrições ",
  "2104": "LO",
  "2105": "ecí",
  "2106": "elo ",
  "2107": "Rec",
  "2108": "depend",
  "2109": "o men",
  "2110": "ada a ",
  "2111": "er a ",
  "2112": "determin",
  "2113": "almente, ",
  "2114": "servid",
  "2115": "bens ",
  "2116": "limit",
  "2117": "permit",
  "2118": "ocorr",
  "2119": "ugu",
  "2120": "ress",
  "2121": "conheciment",
  "2122": "no dia ",
  "2123": "o dia ",
  "2124": "ação\n\n",
  "2125": "vido ",
  "2126": "ciment",
  "2127": "ológ",
  "2128": "pelas ",
  "2129": "dados ",
  "2130": "conteú",
  "2131": "lembr",
  "2132": "pap",
  "2133": "2018 ",
  "2134": "milh",
  "2135": "a!\n\n",
  "2136": "s. ",
  "2137": "Ainda ",
  "2138": "respost",
  "2139": "usando ",
  "2140": "list",
  "2141": "andes ",
  "2142": "COM",
  "2143": "cad",
  "2144": "ente",
  "2145": "período ",
  "2146": "o, o ",
  "2147": "30 ",
  "2148": "Lei Orgân",
  "2149": "IX",
  "2150": "a part",
  "2151": "mente ",
  "2152": "público",
  "2153": "aur",
  "2154": "artig",
  "2155": "ér",
  "2156": "jorn",
  "2157": "um dos ",
  "2158": "do C",
  "2159": "fre",
  "2160": "resol",
  "2161": "Em",
  "2162": ".”\n\n",
  "2163": "cit",
  "2164": "a! ",
  "2165": "mostr",
  "2166": "dú",
  "2167": "pergunt",
  "2168": "hoje ",
  "2169": "vestib",
  "2170": "ht",
  "2171": "ps",
  "2172": ".br",
  "2173": "presente ",
  "2174": "conform",
  "2175": "ão e ",
  "2176": "Cap",
  "2177": "ágraf",
  "2178": "eres ",
  "2179": "ação em ",
  "2180": "neste ",
  "2181": "Inst",
  "2182": "assunt",
  "2183": "er e ",
  "2184": "atividades ",
  "2185": "acompanh",
  "2186": "númer",
  "2187": "art. ",
  "2188": "a mai",
  "2189": "quais ",
  "2190": "comunic",
  "2191": "entes, ",
  "2192": "avr",
  "2193": "ais.\n\n",
  "2194": "ench",
  "2195": "nacion",
  "2196": "devem ",
  "2197": "adicion",
  "2198": "Saú",
  "2199": "Min",
  "2200": " de ag",
  "2201": "redit",
  "2202": "Portu",
  "2203": "Ob",
  "2204": " de julh",
  "2205": "o, 2017",
  "2206": "o, 2017: ",
  "2207": "US",
  "2208": "medic",
  "2209": "envi",
  "2210": "inclu",
  "2211": "efici",
  "2212": "CON",
  "2213": "co, ",
  "2214": "ím",
  "2215": "ação das ",
  "2216": "diz ",
  "2217": "adas, ",
  "2218": "exercíci",
  "2219": "a sua ",
  "2220": "imento de ",
  "2221": "o mesm",
  "2222": "23",
  "2223": "unci",
  "2224": "o ao ",
  "2225": "ben",
  "2226": "To",
  "2227": "mulh",
  "2228": "cal",
  "2229": "melhores ",
  "2230": "partilh",
  "2231": "anto, ",
  "2232": "film",
  "2233": "ê ",
  "2234": "perf",
  "2235": "Port",
  "2236": "Po",
  "2237": "abaix",
  "2238": "então ",
  "2239": "aqui",
  "2240": "que as ",
  "2241": "rever",
  "2242": "]\n\n",
  "2243": " D",
  "2244": "quase ",
  "2245": "disse ",
  "2246": "Jes",
  "2247": "mes",
  "2248": "astr",
  "2249": "valor ",
  "2250": "amento do ",
  "2251": "especí",
  "2252": "financ",
  "2253": "acter",
  "2254": "mud",
  "2255": "for ",
  "2256": "disc",
  "2257": "sec",
  "2258": "edad",
  "2259": "mês ",
  "2260": "prat",
  "2261": "empresa ",
  "2262": "quatr",
  "2263": "exam",
  "2264": "cat",
  "2265": "istéri",
  "2266": "ro",
  "2267": "es: ",
  "2268": "a.\n\nO ",
  "2269": "ás ",
  "2270": "Ag",
  "2271": "pou",
  "2272": "ação. ",
  "2273": "20 ",
  "2274": "ou o ",
  "2275": "a mais ",
  "2276": "a.\n\n\n\n",
  "2277": "P ",
  "2278": "dar ",
  "2279": "o.\n\nO ",
  "2280": "Fl",
  "2281": "Esp",
  "2282": "IS ",
  "2283": "evit",
  "2284": "veis",
  "2285": "ados em ",
  "2286": "como a ",
  "2287": "contrat",
  "2288": "situ",
  "2289": "ando",
  "2290": "març",
  "2291": "viol",
  "2292": "áveis ",
  "2293": "até",
  "2294": "tir",
  "2295": "imentos ",
  "2296": "Sistem",
  "2297": "O, ",
  "2298": "ós",
  "2299": "gest",
  "2300": "] ",
  "2301": "por exempl",
  "2302": "aí ",
  "2303": "blog",
  "2304": "Quer",
  "2305": "ficou ",
  "2306": "Is",
  "2307": "corp",
  "2308": "??",
  "2309": "in ",
  "2310": "bastante ",
  "2311": "vários ",
  "2312": "filme ",
  "2313": "negr",
  "2314": "At",
  "2315": "ente.\n\n",
  "2316": "clientes ",
  "2317": "RI",
  "2318": ", no ",
  "2319": "ada por ",
  "2320": "cent",
  "2321": "inclusiv",
  "2322": "ub",
  "2323": "amento e ",
  "2324": "ir a ",
  "2325": "entidades ",
  "2326": "Cas",
  "2327": "rest",
  "2328": "es do ",
  "2329": "serem ",
  "2330": "cin",
  "2331": "sexu",
  "2332": "fíci",
  "2333": "apren",
  "2334": "rein",
  "2335": "nova ",
  "2336": "numa ",
  "2337": "que",
  "2338": "agora ",
  "2339": "Brasil ",
  "2340": "nenh",
  "2341": "agrad",
  "2342": "a.\n\nA ",
  "2343": "arg",
  "2344": "ANT",
  "2345": "ro ",
  "2346": "bran",
  "2347": "segund",
  "2348": "SU",
  "2349": "éd",
  "2350": "Or",
  "2351": "AÇÃO ",
  "2352": "PO",
  "2353": "irá ",
  "2354": "parte ",
  "2355": "fisc",
  "2356": "icas, ",
  "2357": "faci",
  "2358": "al;\n\n",
  "2359": "cum",
  "2360": "execut",
  "2361": "prot",
  "2362": "rem ",
  "2363": "processo de ",
  "2364": "a os ",
  "2365": "para os ",
  "2366": "unda ",
  "2367": "Intern",
  "2368": "o não ",
  "2369": "as com ",
  "2370": "ília ",
  "2371": "ado a ",
  "2372": "ar para ",
  "2373": "modo a ",
  "2374": "set",
  "2375": "em um ",
  "2376": "profess",
  "2377": "aju",
  "2378": "colh",
  "2379": "vem ",
  "2380": ", mas ",
  "2381": "imag",
  "2382": "Ou",
  "2383": "Ci",
  "2384": "onlin",
  "2385": "possui ",
  "2386": "udo ",
  "2387": "lá ",
  "2388": "IG",
  "2389": "ER ",
  "2390": "PAR",
  "2391": "Conc",
  "2392": "vert",
  "2393": "rot",
  "2394": "necessári",
  "2395": "IV – ",
  "2396": "Edu",
  "2397": ", e ",
  "2398": "adi",
  "2399": "edit",
  "2400": "adequ",
  "2401": "comerci",
  "2402": "a das ",
  "2403": "priv",
  "2404": "transform",
  "2405": "ar por ",
  "2406": "do\n\n",
  "2407": "também",
  "2408": "ampl",
  "2409": "conjunt",
  "2410": "idade",
  "2411": "consci",
  "2412": "“Art. ",
  "2413": "a”",
  "2414": "Esse ",
  "2415": "avam ",
  "2416": "o.\n\nA ",
  "2417": "ótim",
  "2418": "ah",
  "2419": "sint",
  "2420": "St",
  "2421": "ENT",
  "2422": "grandes ",
  "2423": "Lên",
  "2424": "Val",
  "2425": "al\n\n",
  "2426": "instal",
  "2427": "egisl",
  "2428": "21",
  "2429": "UL",
  "2430": "público ",
  "2431": "veis, ",
  "2432": "o à ",
  "2433": "reun",
  "2434": "dific",
  "2435": "perman",
  "2436": "receber ",
  "2437": "para que ",
  "2438": "produz",
  "2439": "ores de ",
  "2440": "marc",
  "2441": "vir",
  "2442": ", em ",
  "2443": "UT",
  "2444": "der",
  "2445": "nas",
  "2446": "ados.\n\n",
  "2447": "pect",
  "2448": "A, ",
  "2449": "os na ",
  "2450": "prem",
  "2451": " de junh",
  "2452": "eman",
  "2453": "fel",
  "2454": "alc",
  "2455": "lug",
  "2456": "nossas ",
  "2457": "com um ",
  "2458": "kk",
  "2459": "investig",
  "2460": "sel",
  "2461": "fim ",
  "2462": "emor",
  "2463": "brasileir",
  "2464": "ina, ",
  "2465": "utilizando ",
  "2466": "resultados ",
  "2467": "séri",
  "2468": "mont",
  "2469": "erreir",
  "2470": "a.",
  "2471": "oç",
  "2472": "!!!",
  "2473": "branc",
  "2474": "ON",
  "2475": "\"\n\n",
  "2476": "presidente ",
  "2477": "_ ",
  "2478": "Conf",
  "2479": "exclusiv",
  "2480": "responsab",
  "2481": ". S",
  "2482": "enquanto ",
  "2483": "Poder ",
  "2484": "constitu",
  "2485": "ada e ",
  "2486": "ágrafo ",
  "2487": "orig",
  "2488": "elabor",
  "2489": "vend",
  "2490": "abilidade ",
  "2491": "motiv",
  "2492": "fici",
  "2493": "iri",
  "2494": "idade.\n\n",
  "2495": "ar.\n\n",
  "2496": "ons",
  "2497": "associ",
  "2498": "a, o ",
  "2499": "grat",
  "2500": "pressão ",
  "2501": "enda ",
  "2502": "Pass",
  "2503": "ar que ",
  "2504": "Nov",
  "2505": "trabalho ",
  "2506": "ª ",
  "2507": "IL",
  "2508": "C ",
  "2509": "rei ",
  "2510": "manhã",
  "2511": "comend",
  "2512": "acord",
  "2513": "a/",
  "2514": "Aquis",
  "2515": "w.",
  "2516": "element",
  "2517": "urop",
  "2518": "novos ",
  "2519": "itet",
  "2520": "rs",
  "2521": "12/",
  "2522": "bit",
  "2523": "dent",
  "2524": "padr",
  "2525": "ança ",
  "2526": "ET",
  "2527": "Ass",
  "2528": "Conselh",
  "2529": "quint",
  "2530": "fix",
  "2531": "serviços de ",
  "2532": "ocup",
  "2533": "administração ",
  "2534": "previst",
  "2535": "sust",
  "2536": "palavr",
  "2537": "aceit",
  "2538": "s e ",
  "2539": "asse ",
  "2540": "prefeit",
  "2541": "capaci",
  "2542": "os a ",
  "2543": "consum",
  "2544": " de agost",
  "2545": "27",
  "2546": "guém ",
  "2547": "além de ",
  "2548": "várias ",
  "2549": "fiz ",
  "2550": "necessário ",
  "2551": "per ",
  "2552": "proxim",
  "2553": "meus ",
  "2554": "minh",
  "2555": "mundo ",
  "2556": "o meu ",
  "2557": "tinha ",
  "2558": "agn",
  "2559": "o melhor ",
  "2560": "0,",
  "2561": "Tenho ",
  "2562": "crít",
  "2563": "Entr",
  "2564": "Vitóri",
  "2565": "ót",
  "2566": "Diret",
  "2567": "orçament",
  "2568": "Município, ",
  "2569": "grá",
  "2570": "tax",
  "2571": "aquele ",
  "2572": "ação para ",
  "2573": "a ao ",
  "2574": "cinc",
  "2575": "ano de ",
  "2576": "ção da ",
  "2577": "tempo ",
  "2578": "ínim",
  "2579": "ados e ",
  "2580": "é a ",
  "2581": "nunca ",
  "2582": "quadr",
  "2583": "principalmente ",
  "2584": "adamente ",
  "2585": "tecn",
  "2586": "ada para ",
  "2587": "com uma ",
  "2588": "jov",
  "2589": "rou",
  "2590": "maneira ",
  "2591": "mad",
  "2592": "nada ",
  "2593": "ficar ",
  "2594": "Cor",
  "2595": "saib",
  "2596": "disse",
  "2597": "eij",
  "2598": "país",
  "2599": "It",
  "2600": "num ",
  "2601": "os no ",
  "2602": ". Os ",
  "2603": "e não ",
  "2604": "Execut",
  "2605": "ribut",
  "2606": "1.",
  "2607": "ismo ",
  "2608": "dos",
  "2609": "ica de ",
  "2610": "ir o ",
  "2611": "san",
  "2612": "casos ",
  "2613": "terá ",
  "2614": "mand",
  "2615": "elas ",
  "2616": "técn",
  "2617": "empresas ",
  "2618": "aqueles ",
  "2619": "a,\n\n",
  "2620": "fundament",
  "2621": "beb",
  "2622": "importânci",
  "2623": "l de ",
  "2624": "pren",
  "2625": "falt",
  "2626": "our",
  "2627": "alguma ",
  "2628": "ian",
  "2629": "a as ",
  "2630": "conhec",
  "2631": "nific",
  "2632": "avilh",
  "2633": "tel",
  "2634": "o muit",
  "2635": "vari",
  "2636": "bu",
  "2637": "cabel",
  "2638": "podem ser ",
  "2639": "eira de ",
  "2640": "ouv",
  "2641": "Senh",
  "2642": "algum ",
  "2643": "MA",
  "2644": "ket",
  "2645": "um pouc",
  "2646": "troc",
  "2647": "Universidade ",
  "2648": "www.",
  "2649": "NA ",
  "2650": "açãeste ",
  "2651": "const",
  "2652": "e uma ",
  "2653": "V – ",
  "2654": "corpor",
  "2655": "eleit",
  "2656": "ados",
  "2657": "rom",
  "2658": "mens",
  "2659": "atribu",
  "2660": "sob ",
  "2661": "Lei",
  "2662": "exec",
  "2663": "cost",
  "2664": "atividade ",
  "2665": "entemente ",
  "2666": "muner",
  "2667": "os dos ",
  "2668": "o d",
  "2669": "ais do ",
  "2670": "sus",
  "2671": "29",
  "2672": "lhe ",
  "2673": "ado pelo ",
  "2674": "fav",
  "2675": "culo ",
  "2676": "usu",
  "2677": "aproveit",
  "2678": "inas ",
  "2679": "istas ",
  "2680": "a não ",
  "2681": "tal ",
  "2682": "ada. ",
  "2683": "ores e ",
  "2684": "air",
  "2685": "rat",
  "2686": "propor",
  "2687": "estraté",
  "2688": "Cri",
  "2689": "ce",
  "2690": "er o ",
  "2691": "excel",
  "2692": "questão ",
  "2693": "realmente ",
  "2694": "Outr",
  "2695": "paci",
  "2696": "é, ",
  "2697": "a g",
  "2698": "a? ",
  "2699": "Sant",
  "2700": "!\n\n\n\n",
  "2701": "verdad",
  "2702": "todo o ",
  "2703": "Noss",
  "2704": "x ",
  "2705": "loj",
  "2706": "outubr",
  "2707": "en ",
  "2708": "Gostaria de ",
  "2709": "Col",
  "2710": "desemp",
  "2711": "ar. ",
  "2712": "ást",
  "2713": "15 ",
  "2714": "/ ",
  "2715": "Administr",
  "2716": "ência do ",
  "2717": "Lei Orgânica ",
  "2718": "DI",
  "2719": "POS",
  "2720": "infer",
  "2721": "nor",
  "2722": "feder",
  "2723": "União ",
  "2724": "saúde ",
  "2725": "ico e ",
  "2726": "orient",
  "2727": "títul",
  "2728": "antes, ",
  "2729": "§ ",
  "2730": "ido, ",
  "2731": "tri",
  "2732": "urg",
  "2733": "ia de ",
  "2734": "econom",
  "2735": "ente de ",
  "2736": "doenç",
  "2737": "qualidade ",
  "2738": "alment",
  "2739": "a ser ",
  "2740": "o se ",
  "2741": "em uma ",
  "2742": "novas ",
  "2743": "au ",
  "2744": "s.\n\n",
  "2745": "oso ",
  "2746": "essas ",
  "2747": "desco",
  "2748": "principais ",
  "2749": "mov",
  "2750": "temos ",
  "2751": "ignific",
  "2752": "ei a ",
  "2753": "e com ",
  "2754": "én",
  "2755": "ating",
  "2756": "al (",
  "2757": "internet",
  "2758": "faç",
  "2759": "AB",
  "2760": "past",
  "2761": "ican",
  "2762": "Te",
  "2763": "evento ",
  "2764": "rios",
  "2765": "PS",
  "2766": "ph",
  "2767": "resenh",
  "2768": "dat",
  "2769": "deverá ",
  "2770": "não se ",
  "2771": "cuid",
  "2772": "e: ",
  "2773": "recursos ",
  "2774": "visão ",
  "2775": "ribun",
  "2776": "prefer",
  "2777": "ência da ",
  "2778": "stri",
  "2779": "fazendo ",
  "2780": "da de ",
  "2781": "registr",
  "2782": "atendiment",
  "2783": "iniciativ",
  "2784": "inciso ",
  "2785": "combat",
  "2786": "pré",
  "2787": "concorr",
  "2788": "corri",
  "2789": "da n",
  "2790": "reci",
  "2791": "Câmara, ",
  "2792": "éci",
  "2793": "ou de ",
  "2794": "28",
  "2795": " de març",
  "2796": "a mesm",
  "2797": "ilidade de ",
  "2798": "disponib",
  "2799": "ofici",
  "2800": "municípi",
  "2801": "desaf",
  "2802": "enc",
  "2803": "relação ",
  "2804": "Ess",
  "2805": "acredit",
  "2806": "intel",
  "2807": "o.\n\n\n\n",
  "2808": "sido ",
  "2809": "eng",
  "2810": "fáci",
  "2811": "versão ",
  "2812": "cabeç",
  "2813": "Ainda mais ",
  "2814": "solu",
  "2815": "isso",
  "2816": "ou um ",
  "2817": "agor",
  "2818": "rol",
  "2819": "diversas ",
  "2820": "UM ",
  "2821": "ex-",
  "2822": "pág",
  "2823": "seguintes ",
  "2824": "VI – ",
  "2825": "ente e ",
  "2826": "pov",
  "2827": "Deus",
  "2828": "orden",
  "2829": "direito ",
  "2830": "atendimento ",
  "2831": "ôni",
  "2832": "riz",
  "2833": "imp",
  "2834": ". O Município ",
  "2835": "elei",
  "2836": "conhecer ",
  "2837": "26",
  "2838": "informação ",
  "2839": "remuner",
  "2840": "ário de ",
  "2841": "ou, ",
  "2842": "nos term",
  "2843": "ende ",
  "2844": "or e ",
  "2845": "econôm",
  "2846": "e um ",
  "2847": "íni",
  "2848": "oriz",
  "2849": "ne",
  "2850": "c ",
  "2851": "alvez ",
  "2852": "sof",
  "2853": "vont",
  "2854": "Program",
  "2855": "alis",
  "2856": "a, mas ",
  "2857": "do de ",
  "2858": "corret",
  "2859": "cé",
  "2860": "açú",
  "2861": "CA",
  "2862": "fiquei ",
  "2863": "bert",
  "2864": "aa",
  "2865": "escrever",
  "2866": "a A",
  "2867": "Rio de ",
  "2868": "Rio de J",
  "2869": "contato ",
  "2870": "seria ",
  "2871": "Mor",
  "2872": "Cr",
  "2873": "(S",
  "2874": "havia ",
  "2875": "Gl",
  "2876": "o! ",
  "2877": "Camp",
  "2878": "arquitet",
  "2879": "pt",
  "2880": "e-mai",
  "2881": ".com",
  "2882": "reserv",
  "2883": "reduz",
  "2884": "Gerais ",
  "2885": "amento da ",
  "2886": "Vere",
  "2887": "olesc",
  "2888": "seguinte ",
  "2889": "princ",
  "2890": "estabeleci",
  "2891": "itut",
  "2892": "ix",
  "2893": "tanto ",
  "2894": "solicit",
  "2895": "bem como ",
  "2896": "caracter",
  "2897": "raz",
  "2898": "den",
  "2899": "Ren",
  "2900": "prátic",
  "2901": "fornec",
  "2902": "sociedade ",
  "2903": "ações e ",
  "2904": "fac",
  "2905": "estre",
  "2906": "sext",
  "2907": "anos de ",
  "2908": "distribu",
  "2909": "produção ",
  "2910": "as no ",
  "2911": "desse ",
  "2912": "a, e ",
  "2913": "dá ",
  "2914": "atis",
  "2915": "busc",
  "2916": "sonh",
  "2917": "bom",
  "2918": "parcer",
  "2919": "ira ",
  "2920": "nãeste ",
  "2921": "terap",
  "2922": "noite ",
  "2923": "AMENT",
  "2924": "08",
  "2925": "ill",
  "2926": "a muito ",
  "2927": "peç",
  "2928": "amanh",
  "2929": "curios",
  "2930": "AG",
  "2931": "responsável ",
  "2932": "ech",
  "2933": "pet",
  "2934": "TR",
  "2935": "assegur",
  "2936": "o b",
  "2937": "juríd",
  "2938": "estim",
  "2939": "e ao ",
  "2940": "plement",
  "2941": "essenci",
  "2942": "indiret",
  "2943": "demais ",
  "2944": "aturez",
  "2945": "via ",
  "2946": "ado o ",
  "2947": "promo",
  "2948": "habit",
  "2949": "issão ",
  "2950": "forma de ",
  "2951": "poderão ",
  "2952": "podendo ",
  "2953": "il, ",
  "2954": "exter",
  "2955": "vant",
  "2956": "o o ",
  "2957": "ar-se ",
  "2958": "da\n\n",
  "2959": "ções de ",
  "2960": "sejam ",
  "2961": "convers",
  "2962": "ica do ",
  "2963": "obter ",
  "2964": "govern",
  "2965": "tendo ",
  "2966": "diversos ",
  "2967": "es que ",
  "2968": "conceit",
  "2969": "ês",
  "2970": "tipo de ",
  "2971": "crev",
  "2972": "incr",
  "2973": "certez",
  "2974": "plat",
  "2975": "própr",
  "2976": "própria ",
  "2977": "maiores ",
  "2978": "lut",
  "2979": "rap",
  "2980": "50 ",
  "2981": "o, mas ",
  "2982": "sei ",
  "2983": "inim",
  "2984": "Escol",
  "2985": "d ",
  "2986": "acordei ",
  "2987": "avel",
  "2988": "estudos ",
  "2989": "inha de ",
  "2990": "an ",
  "2991": "Trabalh",
  "2992": "ir de ",
  "2993": "MA ",
  "2994": "estil",
  "2995": "] - ",
  "2996": "Res",
  "2997": "Serviç",
  "2998": "Câmara Municip",
  "2999": "princípi",
  "3000": "nort",
  "3001": "dispos",
  "3002": "públicos ",
  "3003": "ência e ",
  "3004": "respectiv",
  "3005": "rod",
  "3006": "colabor",
  "3007": "instr",
  "3008": "órgã",
  "3009": "nico",
  "3010": "Além de ",
  "3011": "tratamento ",
  "3012": "por mei",
  "3013": "adores, ",
  "3014": "direitos ",
  "3015": "0, ",
  "3016": "segunda ",
  "3017": "autom",
  "3018": "urante ",
  "3019": "doming",
  "3020": "ofert",
  "3021": "curso ",
  "3022": "formul",
  "3023": "produtos ",
  "3024": "proporcion",
  "3025": "Inform",
  "3026": "TV",
  "3027": "foc",
  "3028": "o!\n\n",
  "3029": "iam ",
  "3030": "cen",
  "3031": "Depois ",
  "3032": "Cur",
  "3033": "o p",
  "3034": "limp",
  "3035": "voz",
  "3036": "fui ",
  "3037": "foto",
  "3038": "aleg",
  "3039": "aque ",
  "3040": "ine ",
  "3041": "fez ",
  "3042": "vocês ",
  "3043": "cerca de ",
  "3044": "Dia ",
  "3045": "ik",
  "3046": "Quando ",
  "3047": "o/",
  "3048": "04",
  "3049": "GR",
  "3050": "ális",
  "3051": "Mais ",
  "3052": "Centr",
  "3053": "boa ",
  "3054": "Congress",
  "3055": "eboo",
  "3056": "noiv",
  "3057": "a, que ",
  "3058": "có",
  "3059": "entreg",
  "3060": "O DE ",
  "3061": "isão ",
  "3062": "o F",
  "3063": "prote",
  "3064": "-se",
  "3065": "Parágrafo ",
  "3066": "polici",
  "3067": "identific",
  "3068": "tribut",
  "3069": "desenvolvimento ",
  "3070": "localiz",
  "3071": "igi",
  "3072": "ídi",
  "3073": "1 de ",
  "3074": "dirig",
  "3075": "Just",
  "3076": "comprom",
  "3077": "setem",
  "3078": "setembr",
  "3079": "entender ",
  "3080": "cuj",
  "3081": "auxili",
  "3082": "e por ",
  "3083": "perceb",
  "3084": "tais ",
  "3085": "gen",
  "3086": "ref",
  "3087": "human",
  "3088": "cresciment",
  "3089": "ofereci",
  "3090": "model",
  "3091": "ender",
  "3092": "conselh",
  "3093": "gratuit",
  "3094": "Nic",
  "3095": "a?\n\n",
  "3096": "compartilh",
  "3097": "casa ",
  "3098": "Portug",
  "3099": "fazer",
  "3100": "show",
  "3101": "frente ",
  "3102": "comentári",
  "3103": "anj",
  "3104": "super ",
  "3105": "Fil",
  "3106": "Ap",
  "3107": "Tamb",
  "3108": "ferr",
  "3109": "ardo ",
  "3110": "portugu",
  "3111": "parece ",
  "3112": "o R",
  "3113": "disso, ",
  "3114": "UIT",
  "3115": "y, ",
  "3116": "ol ",
  "3117": "E, ",
  "3118": "as são ",
  "3119": "”. ",
  "3120": "seguid",
  "3121": "autor ",
  "3122": "PER",
  "3123": "Conh",
  "3124": "2013 ",
  "3125": "Jesus ",
  "3126": "COM ",
  "3127": "gostaria de ",
  "3128": "vidu",
  "3129": "ador de ",
  "3130": "VII – ",
  "3131": "Educ",
  "3132": "Parágrafo Ú",
  "3133": "umer",
  "3134": "ia e ",
  "3135": "Tribun",
  "3136": "cumpr",
  "3137": "urban",
  "3138": "sobre os ",
  "3139": "metr",
  "3140": "pront",
  "3141": "apoi",
  "3142": "as mais ",
  "3143": "icos, ",
  "3144": "dec",
  "3145": "os com ",
  "3146": "salv",
  "3147": "únci",
  "3148": "3, ",
  "3149": "as na ",
  "3150": "terc",
  "3151": "maioria ",
  "3152": "es da ",
  "3153": "tra",
  "3154": "ada.\n\n",
  "3155": "ção",
  "3156": "novo ",
  "3157": "es em ",
  "3158": "possibilit",
  "3159": "materi",
  "3160": "ados para ",
  "3161": "através de ",
  "3162": "12 ",
  "3163": "especialment",
  "3164": "em a ",
  "3165": "profissionais ",
  "3166": "al em ",
  "3167": "mon",
  "3168": "adolesc",
  "3169": "ada no ",
  "3170": "confer",
  "3171": "ada na ",
  "3172": "assum",
  "3173": "abord",
  "3174": "sabe ",
  "3175": "a mar",
  "3176": "são os ",
  "3177": "cada vez ",
  "3178": "ESS",
  "3179": "e (",
  "3180": "Foi ",
  "3181": "Há ",
  "3182": "ingl",
  "3183": "Iss",
  "3184": "ado com ",
  "3185": "dorm",
  "3186": "comemor",
  "3187": "o? ",
  "3188": "Também ",
  "3189": "minut",
  "3190": "sintom",
  "3191": "ganhar ",
  "3192": "Neste ",
  "3193": "Guerreir",
  "3194": "lav",
  "3195": " no ",
  "3196": "ADO ",
  "3197": "etc",
  "3198": "...\n\n\n\n",
  "3199": "Nat",
  "3200": "nav",
  "3201": "Brasil, ",
  "3202": "candidat",
  "3203": "sustent",
  "3204": "região ",
  "3205": "NO ",
  "3206": "cou ",
  "3207": "pele ",
  "3208": "OC",
  "3209": ")\n\n\n\n",
  "3210": "a L",
  "3211": "regulament",
  "3212": "individu",
  "3213": "ais\n\n",
  "3214": "Vic",
  "3215": "Públ",
  "3216": "defes",
  "3217": "al que ",
  "3218": "cidade ",
  "3219": "ior ",
  "3220": "pelo men",
  "3221": "governo ",
  "3222": "opin",
  "3223": "pec",
  "3224": "estadu",
  "3225": "bal",
  "3226": "o, que ",
  "3227": "dos seus ",
  "3228": "má",
  "3229": "infr",
  "3230": "em que ",
  "3231": "ens, ",
  "3232": "partic",
  "3233": "tempo",
  "3234": "pessoas que ",
  "3235": "específic",
  "3236": "adas em ",
  "3237": "presenç",
  "3238": "ativas ",
  "3239": "ilidades ",
  "3240": "pontos ",
  "3241": "és",
  "3242": "ista, ",
  "3243": "” e ",
  "3244": "efíci",
  "3245": "mort",
  "3246": "am, ",
  "3247": "ações.\n\n",
  "3248": "Fin",
  "3249": "corre",
  "3250": "prop",
  "3251": "sens",
  "3252": "aspect",
  "3253": "níveis ",
  "3254": "ponto de ",
  "3255": "uma das ",
  "3256": "bul",
  "3257": "tinh",
  "3258": "if",
  "3259": "dúvid",
  "3260": "vontade ",
  "3261": "fazem ",
  "3262": "sequ",
  "3263": "EX",
  "3264": "avilhos",
  "3265": "acho que ",
  "3266": "oferec",
  "3267": "volu",
  "3268": "destru",
  "3269": "toda a ",
  "3270": "q ",
  "3271": "Muito mais ",
  "3272": "ainda não ",
  "3273": "recomend",
  "3274": "questões ",
  "3275": "Bo",
  "3276": "vamos ",
  "3277": "Hom",
  "3278": "anunci",
  "3279": "diferenç",
  "3280": "Alem",
  "3281": "desafi",
  "3282": "inscrição ",
  "3283": "________________________________",
  "3284": "Der",
  "3285": "egislativ",
  "3286": "ária ",
  "3287": "antes do ",
  "3288": "Bom ",
  "3289": "ática ",
  "3290": "do Est",
  "3291": "”.\n\n",
  "3292": "o.\n\nArt. ",
  "3293": "Institut",
  "3294": "Prefeito, ",
  "3295": "o aos ",
  "3296": "íz",
  "3297": "diretamente ",
  "3298": "concess",
  "3299": "transport",
  "3300": "uso ",
  "3301": "lo",
  "3302": "Constituição Feder",
  "3303": "compost",
  "3304": "blo",
  "3305": "civ",
  "3306": ". D",
  "3307": "dia, ",
  "3308": "adas por ",
  "3309": "assin",
  "3310": "último ",
  "3311": "ados no ",
  "3312": "dificul",
  "3313": "ê-l",
  "3314": "devido ",
  "3315": "confi",
  "3316": "a “",
  "3317": "express",
  "3318": "capaz",
  "3319": "vit",
  "3320": "épo",
  "3321": "caso ",
  "3322": "tenha ",
  "3323": "agem, ",
  "3324": "ões.\n\n",
  "3325": "design",
  "3326": "Per",
  "3327": "categ",
  "3328": "conqu",
  "3329": "uper",
  "3330": "possibilidade de ",
  "3331": "estudo ",
  "3332": "comport",
  "3333": "inspir",
  "3334": "let",
  "3335": "e na ",
  "3336": "papel ",
  "3337": "a\n\n\n\n",
  "3338": "brev",
  "3339": "apont",
  "3340": "estamos ",
  "3341": "imagin",
  "3342": "Alg",
  "3343": "Go",
  "3344": "por exemplo, ",
  "3345": "gel",
  "3346": "Obrig",
  "3347": "guard",
  "3348": "pela m",
  "3349": "\n\nA",
  "3350": "conteúdo ",
  "3351": "itor",
  "3352": "/201",
  "3353": "a fam",
  "3354": "suport",
  "3355": "bel",
  "3356": "eta ",
  "3357": "Saúde ",
  "3358": "este, ",
  "3359": "dicas ",
  "3360": "ded",
  "3361": "Hoj",
  "3362": "o me ",
  "3363": "coisas ",
  "3364": " de dezembro, 2017: ",
  "3365": "NÃO ",
  "3366": " de outubr",
  "3367": "Bar",
  "3368": "os: ",
  "3369": "“O ",
  "3370": "égi",
  "3371": "Bel",
  "3372": "Europ",
  "3373": "hid",
  "3374": "Fac",
  "3375": "PARA ",
  "3376": "AQU",
  "3377": "SS",
  "3378": "confirm",
  "3379": "Vale ",
  "3380": "carr",
  "3381": "CE",
  "3382": "se torn",
  "3383": "orr",
  "3384": "dinheir",
  "3385": "e/",
  "3386": "ICA ",
  "3387": "\n\nSeção ",
  "3388": "Emen",
  "3389": "liber",
  "3390": "o. A ",
  "3391": "Distr",
  "3392": "pública, ",
  "3393": "cará",
  "3394": "servidores ",
  "3395": "veícul",
  "3396": "ir, ",
  "3397": "er os ",
  "3398": "áreas ",
  "3399": "comum ",
  "3400": "tenham ",
  "3401": "matéri",
  "3402": "7, ",
  "3403": "1999",
  "3404": "julg",
  "3405": "o mesmo ",
  "3406": "outro ",
  "3407": "test",
  "3408": "ando, ",
  "3409": "efeitos ",
  "3410": "atent",
  "3411": "desempenh",
  "3412": "ou em ",
  "3413": "font",
  "3414": "o,\n\n",
  "3415": "processo ",
  "3416": "efetiv",
  "3417": "benefíci",
  "3418": "adas de ",
  "3419": "internacion",
  "3420": "ismo, ",
  "3421": "da sua ",
  "3422": "boas ",
  "3423": "visu",
  "3424": "er de ",
  "3425": "iot",
  "3426": "Ministéri",
  "3427": "cos",
  "3428": "idade. ",
  "3429": "a seman",
  "3430": "palestr",
  "3431": "influ",
  "3432": ".\n\nS",
  "3433": "podemos ",
  "3434": "perfei",
  "3435": "imos ",
  "3436": "seguir ",
  "3437": "âne",
  "3438": "put",
  "3439": "o moment",
  "3440": "sou ",
  "3441": "abén",
  "3442": "qued",
  "3443": "nenhum ",
  "3444": "• ",
  "3445": "porém ",
  "3446": "o muito ",
  "3447": "Andr",
  "3448": "eon",
  "3449": "09",
  "3450": "a mã",
  "3451": "PRE",
  "3452": "ak",
  "3453": " de janeiro, 2018: ",
  "3454": "leitur",
  "3455": "usic",
  "3456": "você pode ",
  "3457": "o v",
  "3458": "UF",
  "3459": "inho ",
  "3460": "Internacion",
  "3461": "Festiv",
  "3462": "deste, ",
  "3463": "grafia ",
  "3464": "istur",
  "3465": "FO",
  "3466": "Aqu",
  "3467": " em ",
  "3468": "Leit",
  "3469": "De acordo ",
  "3470": "ÇÃO ",
  "3471": "ou uma ",
  "3472": "COMO ",
  "3473": "lux",
  "3474": "Conceitos ",
  "3475": "Conceitos Gerais ",
  "3476": "Marc",
  "3477": "12/2018 ",
  "3478": "//",
  "3479": "responsabilidade ",
  "3480": "ox",
  "3481": "Da ",
  "3482": "o L",
  "3483": "inv",
  "3484": "o. O ",
  "3485": "organização ",
  "3486": "itos ",
  "3487": "inhas ",
  "3488": "III",
  "3489": "patrim",
  "3490": ";\n\nX",
  "3491": "ção e ",
  "3492": "os:\n\n",
  "3493": "na form",
  "3494": "quin",
  "3495": "ato de ",
  "3496": "Justiç",
  "3497": "qü",
  "3498": "ando-se ",
  "3499": "ando em ",
  "3500": "31",
  "3501": "olução ",
  "3502": "espéci",
  "3503": "adot",
  "3504": "obt",
  "3505": "idos, ",
  "3506": "icas e ",
  "3507": "adqu",
  "3508": "idades, ",
  "3509": "livros ",
  "3510": "atenção ",
  "3511": "2, ",
  "3512": "famili",
  "3513": "produção de ",
  "3514": "desenvol",
  "3515": "armente ",
  "3516": "ingress",
  "3517": "ajuda ",
  "3518": "futur",
  "3519": "Lei Orgânica Municipal ",
  "3520": "sua m",
  "3521": "eus ",
  "3522": "muita ",
  "3523": "queria ",
  "3524": "destac",
  "3525": "fortal",
  "3526": "seja, ",
  "3527": "a fr",
  "3528": "satis",
  "3529": "Quem ",
  "3530": "Veja ",
  "3531": "feito ",
  "3532": "aproxim",
  "3533": "a - ",
  "3534": "Co",
  "3535": "a foi ",
  "3536": "ainda mais ",
  "3537": "fã",
  "3538": "principal ",
  "3539": "redi",
  "3540": "fica ",
  "3541": "primeir",
  "3542": "dinheiro ",
  "3543": "inov",
  "3544": "aça ",
  "3545": "Está ",
  "3546": "ack",
  "3547": "a está ",
  "3548": "Se você ",
  "3549": "é especialment",
  "3550": "as: ",
  "3551": "fiz",
  "3552": "Ant",
  "3553": "consegui ",
  "3554": "almoç",
  "3555": "peg",
  "3556": "fri",
  "3557": "banh",
  "3558": "sinus",
  "3559": "oft",
  "3560": " de agosto, 2018: ",
  "3561": "ich",
  "3562": "igur",
  "3563": "Organiz",
  "3564": "Cam",
  "3565": "Vamos ",
  "3566": "ilv",
  "3567": "regi",
  "3568": "tradicion",
  "3569": "SP",
  "3570": "candidato ",
  "3571": "candidatos ",
  "3572": "Lênin",
  "3573": "((",
  "3574": "LOG",
  "3575": "álco",
  "3576": "decoração ",
  "3577": "armat",
  "3578": "é de ",
  "3579": "htt",
  "3580": "://",
  "3581": "abric",
  "3582": "+ ",
  "3583": "AL ",
  "3584": "pública ",
  "3585": "impost",
  "3586": "possível",
  "3587": "desenvolviment",
  "3588": "Dire",
  "3589": "carreir",
  "3590": "fas",
  "3591": "especializ",
  "3592": "decorr",
  "3593": "I, ",
  "3594": "vigor",
  "3595": "dias, ",
  "3596": "ante de ",
  "3597": "o) ",
  "3598": "no âm",
  "3599": "atamente ",
  "3600": "superior ",
  "3601": "ora, ",
  "3602": "serviço ",
  "3603": "programas de ",
  "3604": "controle ",
  "3605": "origin",
  "3606": "Rel",
  "3607": "jeit",
  "3608": "am-se ",
  "3609": "como se ",
  "3610": "sufici",
  "3611": "class",
  "3612": "mó",
  "3613": "Todos ",
  "3614": "venda ",
  "3615": "ácul",
  "3616": "bás",
  "3617": " de abril, ",
  "3618": "ares, ",
  "3619": "íveis",
  "3620": "caix",
  "3621": "ância ",
  "3622": "menos ",
  "3623": "homem ",
  "3624": "iminu",
  "3625": "plant",
  "3626": "ED",
  "3627": "atiz",
  "3628": "ados de ",
  "3629": "li ",
  "3630": "é que ",
  "3631": "extrem",
  "3632": "problemas ",
  "3633": "os mais ",
  "3634": "a. O ",
  "3635": "erd",
  "3636": "personaliz",
  "3637": "fazer o ",
  "3638": "dessa ",
  "3639": "a), ",
  "3640": "uz",
  "3641": "sáb",
  "3642": "eu",
  "3643": "Pes",
  "3644": "escrever ",
  "3645": "última ",
  "3646": "dim ",
  "3647": "* ",
  "3648": "digit",
  "3649": "Fi",
  "3650": "momento ",
  "3651": "Estados ",
  "3652": "Glob",
  "3653": "de um ",
  "3654": "(C",
  "3655": "Rio de Janeir",
  "3656": "2.",
  "3657": "Ed",
  "3658": "TO",
  "3659": "Ensin",
  "3660": "Cl",
  "3661": "» ",
  "3662": "notíci",
  "3663": "casamento ",
  "3664": "a.\n\nImagem ",
  "3665": "ar da ",
  "3666": "ado ao ",
  "3667": "emit",
  "3668": "amente.\n\n",
  "3669": "manut",
  "3670": "intens",
  "3671": "legislativ",
  "3672": "VIII – ",
  "3673": "democ",
  "3674": "PRO",
  "3675": "independ",
  "3676": "o:\n\n",
  "3677": "estat",
  "3678": "acid",
  "3679": "partir ",
  "3680": "ados pelo ",
  "3681": "inclusive ",
  "3682": "suplement",
  "3683": "juíz",
  "3684": "caráter ",
  "3685": "técnic",
  "3686": "fiscaliz",
  "3687": "conven",
  "3688": "implant",
  "3689": "incent",
  "3690": "Parágrafo Único",
  "3691": "a:\n\n",
  "3692": "al.\n\nArt. ",
  "3693": "respond",
  "3694": "número de ",
  "3695": "lei, ",
  "3696": "º, ",
  "3697": "Emenda n",
  "3698": "Emenda nº ",
  "3699": "entes de ",
  "3700": "Gov",
  "3701": "ados pela ",
  "3702": "a partir ",
  "3703": "irão ",
  "3704": "ário da ",
  "3705": "Presidente ",
  "3706": "decisão ",
  "3707": "até o dia ",
  "3708": "exc",
  "3709": "a de um ",
  "3710": "mínim",
  "3711": "50",
  "3712": "durante o ",
  "3713": "mult",
  "3714": "preench",
  "3715": "ar\n\n",
  "3716": "s de ",
  "3717": "grad",
  "3718": "afet",
  "3719": "quatro ",
  "3720": "trabalho, ",
  "3721": "famíli",
  "3722": "próprio ",
  "3723": "Pesso",
  "3724": "devem ser ",
  "3725": "umin",
  "3726": "Part",
  "3727": "especial ",
  "3728": "característ",
  "3729": "explic",
  "3730": "opção ",
  "3731": "ais para ",
  "3732": "imin",
  "3733": "recuper",
  "3734": "tod",
  "3735": "como o ",
  "3736": "energ",
  "3737": "univers",
  "3738": "ais que ",
  "3739": "ifest",
  "3740": "carreg",
  "3741": "ém, ",
  "3742": "outra ",
  "3743": "14 ",
  "3744": "Eles ",
  "3745": "excelente ",
  "3746": "udo, ",
  "3747": "por uma ",
  "3748": "teria ",
  "3749": "adas e ",
  "3750": "ás, ",
  "3751": "signific",
  "3752": "roup",
  "3753": "existem ",
  "3754": "o está ",
  "3755": "é muito ",
  "3756": "osa ",
  "3757": "ecion",
  "3758": "resultado ",
  "3759": "a R",
  "3760": "Senhor ",
  "3761": "inimig",
  "3762": "como um ",
  "3763": "On",
  "3764": "tua ",
  "3765": "hora de ",
  "3766": "ferrament",
  "3767": "ascul",
  "3768": "iram ",
  "3769": "!!!\n\n",
  "3770": "… ",
  "3771": "infec",
  "3772": "to ",
  "3773": "Oeir",
  "3774": "Aquisição de ",
  "3775": "Associ",
  "3776": "Quero ",
  "3777": "am o ",
  "3778": "Estados Un",
  "3779": "Ber",
  "3780": "graç",
  "3781": "parceria ",
  "3782": "h às ",
  "3783": "Eng",
  "3784": "poderia ",
  "3785": "o?\n\n",
  "3786": ". \"",
  "3787": "írit",
  "3788": "ESTE ",
  "3789": "luz",
  "3790": "\n\n\n\nO ",
  "3791": "Alemanh",
  "3792": "o de 2014 ",
  "3793": "ára-",
  "3794": ". É ",
  "3795": "fech",
  "3796": "boc",
  "3797": "PI",
  "3798": "Sub",
  "3799": "Segur",
  "3800": "Econ",
  "3801": "Ambi",
  "3802": "ada pela ",
  "3803": "pessoa ",
  "3804": "Executiv",
  "3805": "a fin",
  "3806": "imit",
  "3807": "a, na ",
  "3808": "financeir",
  "3809": "mediante ",
  "3810": "execução ",
  "3811": "os;\n\n",
  "3812": "cipl",
  "3813": "ários e ",
  "3814": "osp",
  "3815": "êni",
  "3816": "el, ",
  "3817": "campanh",
  "3818": "os ou ",
  "3819": "imagens ",
  "3820": " de fevereiro de ",
  "3821": "decidi",
  "3822": "ária, ",
  "3823": "decis",
  "3824": "presid",
  "3825": "Mo",
  "3826": "ários, ",
  "3827": "a maioria ",
  "3828": "ídas ",
  "3829": "o para o ",
  "3830": "clam",
  "3831": "procediment",
  "3832": "caso, ",
  "3833": "air ",
  "3834": "arquiv",
  "3835": "indo",
  "3836": "al dos ",
  "3837": "o e a ",
  "3838": "para as ",
  "3839": "órgão ",
  "3840": "aind",
  "3841": "assim, ",
  "3842": "pequenos ",
  "3843": "base ",
  "3844": "adquiri",
  "3845": "obra ",
  "3846": "Not",
  "3847": "onstr",
  "3848": "apoio ",
  "3849": "nível ",
  "3850": "urb",
  "3851": "cursos ",
  "3852": "cos, ",
  "3853": "idos",
  "3854": "05",
  "3855": "premi",
  "3856": "o de uma ",
  "3857": "saud",
  "3858": "usar ",
  "3859": "ír",
  "3860": "sor",
  "3861": "uma vez ",
  "3862": "nesse ",
  "3863": "Mai",
  "3864": "telef",
  "3865": "Er",
  "3866": "ido de ",
  "3867": "Ter",
  "3868": "amor",
  "3869": "alguém ",
  "3870": "teve ",
  "3871": "o; ",
  "3872": "dizer ",
  "3873": "ater",
  "3874": "o, e ",
  "3875": "sangu",
  "3876": "edic",
  "3877": "conhecido ",
  "3878": "glob",
  "3879": "conseguir ",
  "3880": "sé",
  "3881": "Sh",
  "3882": "banc",
  "3883": "MUIT",
  "3884": "trist",
  "3885": "ANDO ",
  "3886": "cinem",
  "3887": "ada com ",
  "3888": "escritóri",
  "3889": "anális",
  "3890": "Pal",
  "3891": "Teatr",
  "3892": "DO",
  "3893": "João ",
  "3894": "agem de ",
  "3895": "branqu",
  "3896": "liter",
  "3897": "mér",
  "3898": "ÁRI",
  "3899": "ar mais ",
  "3900": "oferece ",
  "3901": "Ol",
  "3902": "2013, ",
  "3903": "o\n\n\n\n",
  "3904": "apost",
  "3905": "Clar",
  "3906": "Nacional de ",
  "3907": "experiência ",
  "3908": "IO",
  "3909": "NCI",
  "3910": "SEU ",
  "3911": "BL",
  "3912": "a-feir",
  "3913": "a B",
  "3914": "Políci",
  "3915": "barzinh",
  "3916": "ores",
  "3917": "exclusivamente ",
  "3918": "hip",
  "3919": "ajust",
  "3920": "IZ",
  "3921": "icidade ",
  "3922": "Receit",
  "3923": "territ",
  "3924": "Constitu",
  "3925": "entes e ",
  "3926": "o, no ",
  "3927": "ões",
  "3928": "rend",
  "3929": "realização de ",
  "3930": "ovi",
  "3931": "ar sua ",
  "3932": "o, com ",
  "3933": "amentos, ",
  "3934": "ação com ",
  "3935": "ada",
  "3936": "em de ",
  "3937": "subs",
  "3938": "despes",
  "3939": "ado pela Emenda nº ",
  "3940": "VI",
  "3941": "ente do ",
  "3942": "imedi",
  "3943": " de setembr",
  "3944": "Prim",
  "3945": "secret",
  "3946": "ele, ",
  "3947": "edade, ",
  "3948": "por um ",
  "3949": "depo",
  "3950": "contra ",
  "3951": "al ou ",
  "3952": "ada pelo ",
  "3953": "er\n\n",
  "3954": "ar à ",
  "3955": "ês, ",
  "3956": "mos ",
  "3957": "a, em ",
  "3958": "adas no ",
  "3959": "ações",
  "3960": "ificação ",
  "3961": "forn",
  "3962": "defici",
  "3963": "ores.\n\n",
  "3964": "culp",
  "3965": "equipamentos ",
  "3966": "opt",
  "3967": "revel",
  "3968": "don",
  "3969": "depois de ",
  "3970": "família ",
  "3971": "de de ",
  "3972": "to.\n\n",
  "3973": "empre ",
  "3974": "crimin",
  "3975": "refl",
  "3976": "anda ",
  "3977": "conquist",
  "3978": "condicion",
  "3979": "altern",
  "3980": "apt",
  "3981": "através do ",
  "3982": "ítim",
  "3983": "emin",
  "3984": "Plan",
  "3985": "diferenci",
  "3986": "endi",
  "3987": "ar com a ",
  "3988": "Lei Orgânica Municipal pass",
  "3989": "Dr",
  "3990": "áss",
  "3991": "as pessoas ",
  "3992": "icou ",
  "3993": "esforç",
  "3994": "acim",
  "3995": "coisas que ",
  "3996": "divert",
  "3997": "sim, ",
  "3998": "Ao ",
  "3999": "fór",
  "4000": "abéns ",
  "4001": "a minha ",
  "4002": "Após ",
  "4003": " para ",
  "4004": "do M",
  "4005": "ame",
  "4006": "cidade de ",
  "4007": "ra",
  "4008": "mass",
  "4009": "Tem ",
  "4010": "difíci",
  "4011": "a. A ",
  "4012": "market",
  "4013": "The ",
  "4014": "antig",
  "4015": "út",
  "4016": "ei o ",
  "4017": "POR ",
  "4018": "03",
  "4019": "amer",
  "4020": "pan",
  "4021": "uv",
  "4022": " de fevereiro, 2018: ",
  "4023": "anivers",
  "4024": "avelmente ",
  "4025": "preocup",
  "4026": "PL",
  "4027": "mas não ",
  "4028": "apat",
  "4029": "aparec",
  "4030": "exposição ",
  "4031": "da F",
  "4032": "endereç",
  "4033": "Gar",
  "4034": "UMA ",
  "4035": "maravilhos",
  "4036": "eletr",
  "4037": "vestibular ",
  "4038": "rsrs",
  "4039": "ST",
  "4040": "PES",
  "4041": "Amér",
  "4042": "ergi",
  "4043": "ára-qued",
  "4044": "Do",
  "4045": "de acordo ",
  "4046": "relativ",
  "4047": "aisquer ",
  "4048": "inho de ",
  "4049": "idade e ",
  "4050": "ficos ",
  "4051": "clim",
  "4052": "resid",
  "4053": "disponível ",
  "4054": "Dis",
  "4055": "11 ",
  "4056": "DOS ",
  "4057": "esa ",
  "4058": "197",
  "4059": "rur",
  "4060": "eo",
  "4061": "al no ",
  "4062": "assistência ",
  "4063": "ados os ",
  "4064": "adores de ",
  "4065": "dici",
  "4066": "ição, ",
  "4067": "ário e ",
  "4068": "naturez",
  "4069": "incentiv",
  "4070": "função ",
  "4071": "exerci",
  "4072": "ão do ",
  "4073": "sistema ",
  "4074": "eleg",
  "4075": "regular",
  "4076": "1 de 25",
  "4077": " de fevereiro de 1999",
  "4078": "convoc",
  "4079": "ordinári",
  "4080": "terão ",
  "4081": "absol",
  "4082": "absolut",
  "4083": "ível de ",
  "4084": "contáb",
  "4085": "nome",
  "4086": "or da ",
  "4087": "or.\n\n",
  "4088": ". N",
  "4089": "e-se ",
  "4090": "cerr",
  "4091": "em\n\n",
  "4092": "ados na ",
  "4093": "hi",
  "4094": "a, não ",
  "4095": "cid",
  "4096": "gast",
  "4097": "unidades ",
  "4098": "anças ",
  "4099": "classe ",
  "4100": "preserv",
  "4101": "velh",
  "4102": "utri",
  "4103": "bair",
  "4104": "PORT",
  "4105": "bliot",
  "4106": "íqu",
  "4107": "entes.\n\n",
  "4108": "Esta ",
  "4109": "VER",
  "4110": "o mai",
  "4111": "ól",
  "4112": "lugar",
  "4113": "alcanç",
  "4114": "logo ",
  "4115": "tentando ",
  "4116": "Ac",
  "4117": "confort",
  "4118": "Tem",
  "4119": "dias de ",
  "4120": "fazer uma ",
  "4121": "emóri",
  "4122": "internet ",
  "4123": "que é ",
  "4124": "e! ",
  "4125": "remédi",
  "4126": "que eu ",
  "4127": "interpret",
  "4128": "debat",
  "4129": "tem como ",
  "4130": "endo, ",
  "4131": "as (",
  "4132": "osse ",
  "4133": "o mod",
  "4134": "Destes ",
  "4135": "açúc",
  "4136": "peix",
  "4137": "pin",
  "4138": "asi",
  "4139": "precisa ",
  "4140": "all",
  "4141": "oll",
  "4142": "Ph",
  "4143": "ia da ",
  "4144": "curt",
  "4145": "oferecer ",
  "4146": " de novembro, 2017: ",
  "4147": "vi ",
  "4148": "opp",
  "4149": "02",
  "4150": "07",
  "4151": "chanc",
  "4152": "beij",
  "4153": "brun",
  "4154": "RO",
  "4155": "rob",
  "4156": "he",
  "4157": "Empres",
  "4158": "disponibiliz",
  "4159": "IP",
  "4160": "ADE ",
  "4161": "e mais ",
  "4162": "Silv",
  "4163": "isto ",
  "4164": "apes",
  "4165": "a sab",
  "4166": "EU",
  "4167": "Á ",
  "4168": "SER",
  "4169": "saiba como ",
  "4170": "óst",
  "4171": "a para o ",
  "4172": "Fran",
  "4173": "Bi",
  "4174": "ou que ",
  "4175": "Curs",
  "4176": "milit",
  "4177": "emai",
  "4178": "BIO",
  "4179": "LA ",
  "4180": "es soci",
  "4181": "Ador",
  "4182": "lub",
  "4183": "fut",
  "4184": "sul",
  "4185": "o de 2014 às ",
  "4186": "/12/2018 ",
  "4187": "[…",
  "4188": "págin",
  "4189": "ador, ",
  "4190": "créd",
  "4191": "a fun",
  "4192": "fabric",
  "4193": "06",
  "4194": "Proc",
  "4195": "unidade ",
  "4196": "as;\n\n",
  "4197": "Conselho ",
  "4198": "normas ",
  "4199": "entre outr",
  "4200": "plano ",
  "4201": "especialmente ",
  "4202": "o e de ",
  "4203": "sil",
  "4204": "discipl",
  "4205": "XXX",
  "4206": "icidad",
  "4207": "gên",
  "4208": "celebr",
  "4209": "autorização ",
  "4210": "dispost",
  "4211": "social, ",
  "4212": "regr",
  "4213": "; (",
  "4214": "Renumer",
  "4215": "Renumerado pela Emenda nº ",
  "4216": "Renumerado pela Emenda nº 1 de 25",
  "4217": "Renumerado pela Emenda nº 1 de 25 de fevereiro de 1999",
  "4218": "Renumerado pela Emenda nº 1 de 25 de fevereiro de 1999).\n\n",
  "4219": "sobre as ",
  "4220": "contra o ",
  "4221": "compar",
  "4222": "discut",
  "4223": "projeto de ",
  "4224": "encaminh",
  "4225": "relev",
  "4226": "sessões ",
  "4227": "abertas ",
  "4228": "simples ",
  "4229": "audi",
  "4230": "ando-",
  "4231": "complement",
  "4232": "disposição ",
  "4233": "circ",
  "4234": "mês de ",
  "4235": "ula ",
  "4236": "tit",
  "4237": "e dos ",
  "4238": "ações\n\n",
  "4239": "atras",
  "4240": "etivo ",
  "4241": "taref",
  "4242": "que\n\n",
  "4243": "antes.\n\n",
  "4244": "ódi",
  "4245": "cor ",
  "4246": "cinco ",
  "4247": "MIN",
  "4248": "gradu",
  "4249": "ores da ",
  "4250": "cient",
  "4251": "concentr",
  "4252": "entre as ",
  "4253": "ônic",
  "4254": "o.",
  "4255": "verific",
  "4256": "histór",
  "4257": "diferentes ",
  "4258": "assim como ",
  "4259": "a respeit",
  "4260": "importantes ",
  "4261": "resist",
  "4262": "trein",
  "4263": "Precis",
  "4264": "casa, ",
  "4265": "Nick ",
  "4266": "entanto, ",
  "4267": "descobri",
  "4268": "Sem ",
  "4269": "oque ",
  "4270": "e como ",
  "4271": "Sab",
  "4272": "possa ",
  "4273": "ajudar a ",
  "4274": "saí",
  "4275": "vontade de ",
  "4276": "lugar ",
  "4277": "rapid",
  "4278": "satisf",
  "4279": "tentar ",
  "4280": "programa ",
  "4281": "cord",
  "4282": "vej",
  "4283": "195",
  "4284": "her",
  "4285": "ti",
  "4286": "-me ",
  "4287": "a muit",
  "4288": "plata",
  "4289": "ão: ",
  "4290": "pe",
  "4291": "[+",
  "4292": "noite, ",
  "4293": "totalmente ",
  "4294": "organ",
  "4295": "celul",
  "4296": "ansi",
  "4297": "Event",
  "4298": "vei",
  "4299": "aiu ",
  "4300": "100 ",
  "4301": "FUN",
  "4302": "mercado ",
  "4303": "ânt",
  "4304": "k, ",
  "4305": "ardim ",
  "4306": "ros",
  "4307": "2009",
  "4308": "ectu",
  "4309": "a F",
  "4310": "garr",
  "4311": "país ",
  "4312": "GU",
  "4313": "Sul",
  "4314": "ff",
  "4315": "bilh",
  "4316": "For",
  "4317": "Centro de ",
  "4318": "Além disso, ",
  "4319": "mais informações ",
  "4320": "ense ",
  "4321": "o de R",
  "4322": "gol",
  "4323": "o que você ",
  "4324": "Liv",
  "4325": "ADA ",
  "4326": "ÃO",
  "4327": "Faceboo",
  "4328": "agem",
  "4329": "Durante ",
  "4330": "Vi",
  "4331": "adores: ",
  "4332": "Ir",
  "4333": "disse:\n\n",
  "4334": "cliente ",
  "4335": "consist",
  "4336": "quaisquer ",
  "4337": "disponíveis ",
  "4338": "caso de ",
  "4339": "enção, ",
  "4340": ", com ",
  "4341": "Do ",
  "4342": "olu",
  "4343": "Orç",
  "4344": "IX – ",
  "4345": "onom",
  "4346": "ica.\n\n",
  "4347": "comprov",
  "4348": "o de um ",
  "4349": "compat",
  "4350": "ir e ",
  "4351": "estabeleciment",
  "4352": "em em ",
  "4353": "políci",
  "4354": "serviço de ",
  "4355": "instrument",
  "4356": "trad",
  "4357": "Estado ",
  "4358": "o nos ",
  "4359": "educação ",
  "4360": "atura ",
  "4361": "até o ",
  "4362": "tempor",
  "4363": "ar do ",
  "4364": "relatóri",
  "4365": "abertur",
  "4366": "contra a ",
  "4367": "atribuições ",
  "4368": "dispens",
  "4369": "concurso ",
  "4370": "entes",
  "4371": "adas.\n\n",
  "4372": "ado\n\n",
  "4373": "Gestão ",
  "4374": "coorden",
  "4375": "ada da ",
  "4376": "valores ",
  "4377": "idi",
  "4378": "aquel",
  "4379": "ando os ",
  "4380": "époc",
  "4381": "ída ",
  "4382": "ada à ",
  "4383": "al é ",
  "4384": "imóvel ",
  "4385": ". P",
  "4386": "capital ",
  "4387": "estranh",
  "4388": "demonstr",
  "4389": "deixar ",
  "4390": "formas de ",
  "4391": "simil",
  "4392": "relações ",
  "4393": "solução ",
  "4394": "produtiv",
  "4395": "total ",
  "4396": "pic",
  "4397": "a nos ",
  "4398": "bliotec",
  "4399": "estratég",
  "4400": "risc",
  "4401": "ambiente ",
  "4402": "ando uma ",
  "4403": "o des",
  "4404": "1º ",
  "4405": "40 ",
  "4406": "ell",
  "4407": "crist",
  "4408": "viaj",
  "4409": "cursos de ",
  "4410": "a fal",
  "4411": "Ins",
  "4412": "Desde ",
  "4413": "encontrar ",
  "4414": "chei",
  "4415": "somos ",
  "4416": "surg",
  "4417": "amor ",
  "4418": "Deix",
  "4419": "estej",
  "4420": "eter",
  "4421": "sozinh",
  "4422": "analis",
  "4423": "oportunidade de ",
  "4424": "urgi",
  "4425": "adas. ",
  "4426": "Ist",
  "4427": "poucos ",
  "4428": "tem um ",
  "4429": "a\" ",
  "4430": " que ",
  "4431": "temper",
  "4432": "bonit",
  "4433": "projeto ",
  "4434": "derr",
  "4435": "senh",
  "4436": "pid",
  "4437": "[+]\n\n",
  "4438": "líd",
  "4439": "cans",
  "4440": "van",
  "4441": "am de ",
  "4442": "EIR",
  "4443": "infl",
  "4444": "soluções ",
  "4445": "natural ",
  "4446": "para quem ",
  "4447": "fácil ",
  "4448": "teu ",
  "4449": "eios ",
  "4450": "aquela ",
  "4451": "ug",
  "4452": "INT",
  "4453": "and ",
  "4454": "ã ",
  "4455": " de abril, 2018: ",
  "4456": "FOR",
  "4457": "sk",
  "4458": "ina e ",
  "4459": "tend",
  "4460": "vali",
  "4461": "telefon",
  "4462": "Prof",
  "4463": "construção ",
  "4464": "torna ",
  "4465": "ante e ",
  "4466": "Ciências ",
  "4467": "AV",
  "4468": "ond",
  "4469": "contat",
  "4470": "na sua ",
  "4471": "Rio ",
  "4472": "taxa de ",
  "4473": "Cart",
  "4474": " R",
  "4475": "grupo ",
  "4476": "ous",
  "4477": "tamanh",
  "4478": "comentários ",
  "4479": "POST",
  "4480": " DO ",
  "4481": "JAR",
  "4482": "B ",
  "4483": "ain",
  "4484": "Jos",
  "4485": "a Feder",
  "4486": "revista ",
  "4487": " de julho de 2014 às ",
  "4488": "Títul",
  "4489": "prazo de ",
  "4490": "e-mail ",
  "4491": "ante do ",
  "4492": "hipót",
  "4493": "hipótes",
  "4494": "gerenci",
  "4495": "pers",
  "4496": "\n\nCap",
  "4497": "Projet",
  "4498": "uri",
  "4499": "ança, ",
  "4500": "meio ",
  "4501": "atual ",
  "4502": "-lh",
  "4503": "operação ",
  "4504": "ais;\n\n",
  "4505": "unicip",
  "4506": "instituição ",
  "4507": "deverão ",
  "4508": "instituições ",
  "4509": "24 ",
  "4510": "contribuint",
  "4511": "ival",
  "4512": "eced",
  "4513": "deput",
  "4514": "; (Renumerado pela Emenda nº 1 de 25 de fevereiro de 1999).\n\n",
  "4515": "ariamente ",
  "4516": "tiver ",
  "4517": "agentes ",
  "4518": "membros da ",
  "4519": "38",
  "4520": "plen",
  "4521": "parte do ",
  "4522": "transfer",
  "4523": "propriet",
  "4524": "a para a ",
  "4525": "vista ",
  "4526": "critéri",
  "4527": "períod",
  "4528": "alidades ",
  "4529": "anci",
  "4530": "encerr",
  "4531": "acus",
  "4532": "comuns ",
  "4533": "ados por ",
  "4534": "polític",
  "4535": "atualiz",
  "4536": "Consult",
  "4537": "erem ",
  "4538": "ação:\n\n",
  "4539": "únic",
  "4540": "riscos ",
  "4541": "está",
  "4542": "o em que ",
  "4543": "ete ",
  "4544": "capit",
  "4545": "ilumin",
  "4546": "parc",
  "4547": "amentos de ",
  "4548": "ecol",
  "4549": "entend",
  "4550": "enção de ",
  "4551": "psico",
  "4552": "estratégi",
  "4553": "expos",
  "4554": "manifest",
  "4555": "provoc",
  "4556": "a; ",
  "4557": "mente, ",
  "4558": "única ",
  "4559": "Vou ",
  "4560": "exib",
  "4561": "ados. ",
  "4562": "uj",
  "4563": "adora ",
  "4564": "o que não ",
  "4565": "Form",
  "4566": "eiro, ",
  "4567": "enfr",
  "4568": "dades ",
  "4569": "impress",
  "4570": "estav",
  "4571": "relat",
  "4572": "intelig",
  "4573": "agir ",
  "4574": "amos, ",
  "4575": "am em ",
  "4576": "único ",
  "4577": "desist",
  "4578": "aib",
  "4579": "está em ",
  "4580": "trabalho de ",
  "4581": "activ",
  "4582": "“M",
  "4583": "comec",
  "4584": "espaço ",
  "4585": "o que é ",
  "4586": "CR",
  "4587": "veio ",
  "4588": "embal",
  "4589": "imiz",
  "4590": "danos ",
  "4591": "sim ",
  "4592": "vog",
  "4593": "eor",
  "4594": "preciso ",
  "4595": "ressalt",
  "4596": "excess",
  "4597": "identicamente ",
  "4598": "identicamente conjunt",
  "4599": "identicamente conjuntamente ",
  "4600": "ignor",
  "4601": "ar este ",
  "4602": "os.\n\n\n\n",
  "4603": "portugues",
  "4604": "Tudo ",
  "4605": "us, ",
  "4606": "ino ",
  "4607": "separ",
  "4608": "fol",
  "4609": "barr",
  "4610": "play",
  "4611": "o foi ",
  "4612": "cobert",
  "4613": "a\"",
  "4614": " de junho, 2018: ",
  "4615": "ista de ",
  "4616": "CH",
  "4617": "Vest",
  "4618": "anúnci",
  "4619": "Comun",
  "4620": ", M",
  "4621": "gráfic",
  "4622": "le ",
  "4623": "a se ",
  "4624": "do e ",
  "4625": "peit",
  "4626": "voc",
  "4627": "Belo ",
  "4628": "eça ",
  "4629": "óm",
  "4630": "aco",
  "4631": "agnóst",
  "4632": "ecido ",
  "4633": "pesc",
  "4634": "lique ",
  "4635": "agend",
  "4636": "mulher ",
  "4637": "partido ",
  "4638": " é ",
  "4639": "evang",
  "4640": "reu ",
  "4641": "diminu",
  "4642": "BLOG",
  "4643": "PC",
  "4644": "HA ",
  "4645": "http",
  "4646": "http://",
  "4647": "PÚ",
  "4648": "PÚBL",
  "4649": "redes soci",
  "4650": "flores ",
  "4651": "próximos ",
  "4652": "Instagr",
  "4653": "antes e ",
  "4654": "Vis",
  "4655": "Marcadores: ",
  "4656": ", na ",
  "4657": "códig",
  "4658": "período de ",
  "4659": "idade do ",
  "4660": "bols",
  "4661": "perd",
  "4662": "poderá ser ",
  "4663": "p ",
  "4664": "ação: ",
  "4665": "\n\nCap. ",
  "4666": "40",
  "4667": "Prefeito ",
  "4668": "80",
  "4669": "Administração ",
  "4670": "ubl",
  "4671": "Desenvolv",
  "4672": "Cultur",
  "4673": "Tur",
  "4674": "ativa, ",
  "4675": "a e de ",
  "4676": ".\n\nArt. ",
  "4677": "incorpor",
  "4678": "Distrit",
  "4679": "requis",
  "4680": "dez ",
  "4681": "Instituto ",
  "4682": "adas as ",
  "4683": "rech",
  "4684": "prejuíz",
  "4685": "Estadu",
  "4686": "plano de ",
  "4687": "serviços, ",
  "4688": "ando as ",
  "4689": "ton",
  "4690": "gêner",
  "4691": "ão da ",
  "4692": "leis ",
  "4693": "uso de ",
  "4694": "arda ",
  "4695": "enta ",
  "4696": "no âmbit",
  "4697": "apreci",
  "4698": "o às ",
  "4699": "do dia ",
  "4700": "oria, ",
  "4701": "poderão ser ",
  "4702": "trint",
  "4703": "dedic",
  "4704": "estas ",
  "4705": "presentes ",
  "4706": "pelo menos ",
  "4707": ". Não ",
  "4708": "se, ",
  "4709": "do seu ",
  "4710": "as a ",
  "4711": "par ",
  "4712": "o para a ",
  "4713": "ou com ",
  "4714": "ais da ",
  "4715": "os ao ",
  "4716": "am os ",
  "4717": "provas ",
  "4718": "comput",
  "4719": "teri",
  "4720": "aqueles que ",
  "4721": "domíni",
  "4722": "ins ",
  "4723": "feitas ",
  "4724": "os não ",
  "4725": "ou por ",
  "4726": "potenci",
  "4727": "políticas ",
  "4728": "últimos ",
  "4729": "orit",
  "4730": "gin",
  "4731": "elimin",
  "4732": "acionais ",
  "4733": "oportunidades ",
  "4734": "população ",
  "4735": "as-",
  "4736": "tecnologia ",
  "4737": "frut",
  "4738": "DES",
  "4739": "AZ",
  "4740": "base",
  "4741": "capacit",
  "4742": "ador do ",
  "4743": "facilit",
  "4744": "a todos os ",
  "4745": "acres",
  "4746": "esmo ",
  "4747": "80 ",
  "4748": "cláss",
  "4749": "frequ",
  "4750": "Atu",
  "4751": "ter uma ",
  "4752": "ustr",
  "4753": "ou-se ",
  "4754": "extremamente ",
  "4755": "Talvez ",
  "4756": "cris",
  "4757": "a maior ",
  "4758": "or do ",
  "4759": "er um ",
  "4760": "rápi",
  "4761": "trav",
  "4762": "já que ",
  "4763": "Carl",
  "4764": "limpez",
  "4765": ".\n\nN",
  "4766": "consequ",
  "4767": "vos ",
  "4768": ".. ",
  "4769": "cort",
  "4770": "íssim",
  "4771": "e é ",
  "4772": "o que se ",
  "4773": "destaque ",
  "4774": "AP",
  "4775": "Gil",
  "4776": "ante. ",
  "4777": "aram",
  "4778": "18 ",
  "4779": "opções ",
  "4780": "igualmente ",
  "4781": "sãeste ",
  "4782": "o min",
  "4783": "ou seja, ",
  "4784": "é importante ",
  "4785": "e D",
  "4786": "né",
  "4787": "negativ",
  "4788": "quero ",
  "4789": "Estou ",
  "4790": "Aut",
  "4791": "perder ",
  "4792": "Rob",
  "4793": "izz",
  "4794": "!!!, ",
  "4795": "aqui, ",
  "4796": "toc",
  "4797": "éis ",
  "4798": "mim",
  "4799": "chuv",
  "4800": "fant",
  "4801": "AA",
  "4802": "ess ",
  "4803": "regu",
  "4804": "milhões de ",
  "4805": "Aquisição ",
  "4806": "Grup",
  "4807": "Ped",
  "4808": "Portugu",
  "4809": "Banc",
  "4810": "que de ",
  "4811": "argument",
  "4812": "através da ",
  "4813": "Cu",
  "4814": "o\"",
  "4815": "cada vez mais ",
  "4816": "passos ",
  "4817": "aneiro ",
  "4818": "Ru",
  "4819": "Mas, ",
  "4820": "o”, ",
  "4821": "icos e ",
  "4822": "o” ",
  "4823": "afr",
  "4824": "Encontr",
  "4825": "VE",
  "4826": "Esper",
  "4827": "apaix",
  "4828": "apaixon",
  "4829": "lado ",
  "4830": "folh",
  "4831": "obre ",
  "4832": "MG",
  "4833": "Ingl",
  "4834": "próxima ",
  "4835": "exatamente ",
  "4836": "Resp",
  "4837": "gri",
  "4838": "Grande ",
  "4839": "mais inform",
  "4840": "ame ",
  "4841": "etap",
  "4842": "e S",
  "4843": "a de S",
  "4844": "Engenh",
  "4845": "a D",
  "4846": "segunda-feira (",
  "4847": "Crist",
  "4848": "Lênin ",
  "4849": "o mundo ",
  "4850": "gente ",
  "4851": "Le",
  "4852": "LU",
  "4853": "gestão de ",
  "4854": "hidrat",
  "4855": "cop",
  "4856": "NCIA ",
  "4857": "SÃO ",
  "4858": "— ",
  "4859": "quil",
  "4860": "especialist",
  "4861": "> ",
  "4862": "Oper",
  "4863": "se apresent",
  "4864": "homen",
  "4865": "o para sal",
  "4866": "1 de julho de 2014 às ",
  "4867": "armaton ",
  "4868": "Título: ",
  "4869": "Vale Pres",
  "4870": "es (",
  "4871": "cadastr",
  "4872": "pas",
  "4873": "chav",
  "4874": "conforme ",
  "4875": "manutenção ",
  "4876": "a melhor ",
  "4877": "al: ",
  "4878": "Vice-",
  "4879": "AIS ",
  "4880": "Polít",
  "4881": "ico do ",
  "4882": "arrec",
  "4883": "arrecad",
  "4884": "c) ",
  "4885": "ído ",
  "4886": "Integr",
  "4887": "coletiv",
  "4888": "Estado, ",
  "4889": "indu",
  "4890": "bons ",
  "4891": "proteção ",
  "4892": "portiv",
  "4893": "o loc",
  "4894": "na forma da ",
  "4895": "conserv",
  "4896": "ved",
  "4897": "cobr",
  "4898": "ança de ",
  "4899": "ções, ",
  "4900": "árias, ",
  "4901": "particular",
  "4902": "ze ",
  "4903": "do P",
  "4904": "oni",
  "4905": "deleg",
  "4906": "ídos ",
  "4907": "90 ",
  "4908": "o, em ",
  "4909": "prestação de ",
  "4910": "ante.\n\n",
  "4911": "dos de ",
  "4912": "ado à ",
  "4913": "o, na ",
  "4914": "icas para ",
  "4915": "público, ",
  "4916": "alidade, ",
  "4917": "suger",
  "4918": "a falt",
  "4919": "manter ",
  "4920": "pratic",
  "4921": "idade\n\n",
  "4922": "quad",
  "4923": "1. ",
  "4924": "ilidade, ",
  "4925": "ação ou ",
  "4926": "90",
  "4927": "entu",
  "4928": "ências de ",
  "4929": "casos de ",
  "4930": "ítulo ",
  "4931": "umb",
  "4932": "necessidades ",
  "4933": "Todos os ",
  "4934": "missão ",
  "4935": "espet",
  "4936": "saúde",
  "4937": "compens",
  "4938": "desses ",
  "4939": "stânci",
  "4940": "base de ",
  "4941": "ação na ",
  "4942": "mec",
  "4943": "ada\n\n",
  "4944": "ada do ",
  "4945": "azen",
  "4946": "sistema de ",
  "4947": "mu",
  "4948": "adapt",
  "4949": "vítim",
  "4950": "garantir ",
  "4951": "rede ",
  "4952": "ensino ",
  "4953": "em o ",
  "4954": "grau ",
  "4955": "artes",
  "4956": "mal",
  "4957": "seguinte red",
  "4958": "o médi",
  "4959": "dentro do ",
  "4960": "suc",
  "4961": "2º ",
  "4962": "o, não ",
  "4963": "sofr",
  "4964": "a à ",
  "4965": "otiv",
  "4966": "nó",
  "4967": "ajudar ",
  "4968": "ar o seu ",
  "4969": "aremos ",
  "4970": "cond",
  "4971": "Nick V",
  "4972": "Nick Vuj",
  "4973": "Nick Vujici",
  "4974": "esmente ",
  "4975": "braç",
  "4976": "feliz ",
  "4977": "primeiros ",
  "4978": "influenci",
  "4979": "esse livr",
  "4980": "domin",
  "4981": "aram a ",
  "4982": "até mesmo ",
  "4983": "pud",
  "4984": "ao long",
  "4985": "eliz",
  "4986": "o – ",
  "4987": "J ",
  "4988": "finalmente ",
  "4989": "fazer a ",
  "4990": "cirurgi",
  "4991": "ingredi",
  "4992": "ei de ",
  "4993": "viz",
  "4994": "proj",
  "4995": "Av",
  "4996": "ing, ",
  "4997": "F ",
  "4998": "identidade ",
  "4999": "Muito ",
  "5000": "a not",
  "5001": "os. O ",
  "5002": "Nacional do ",
  "5003": "anti",
  "5004": "war",
  "5005": "fosse ",
  "5006": "alegri",
  "5007": "vida de ",
  "5008": "positiv",
  "5009": "amin",
  "5010": "mundi",
  "5011": "comb",
  "5012": "manhã ",
  "5013": "quantidade de ",
  "5014": "MO",
  "5015": "as”, ",
  "5016": "Nun",
  "5017": "o que eu ",
  "5018": "em 201",
  "5019": "mundo, ",
  "5020": "imens",
  "5021": "ed ",
  "5022": "verdade ",
  "5023": "ões. ",
  "5024": "azul",
  "5025": "abraç",
  "5026": "pizz",
  "5027": "rug",
  "5028": "tarde ",
  "5029": "estavam ",
  "5030": "mal ",
  "5031": "NO",
  "5032": "omos ",
  "5033": "acad",
  "5034": "restaur",
  "5035": "lou",
  "5036": "ou na ",
  "5037": "bis",
  "5038": "amos de ",
  "5039": "250 ",
  "5040": "SA",
  "5041": "Avali",
  "5042": "remov",
  "5043": "polêm",
  "5044": "a de uma ",
  "5045": "p. ",
  "5046": "alem",
  "5047": "oniz",
  "5048": "passar ",
  "5049": "necessidade de ",
  "5050": "lib",
  "5051": "Universidade Feder",
  "5052": "e se ",
  "5053": "ANÇ",
  "5054": "az ",
  "5055": "alta ",
  "5056": "Zec",
  "5057": "eletrôn",
  "5058": "aguard",
  "5059": "Clique ",
  "5060": "estará ",
  "5061": "processo s",
  "5062": "processo sel",
  "5063": ".\n\nAs ",
  "5064": "no seu ",
  "5065": "as.\n\nO ",
  "5066": "produto ",
  "5067": "irmã",
  "5068": "Se",
  "5069": "Out",
  "5070": "Net",
  "5071": "OU ",
  "5072": "BIOJAR",
  "5073": "COR",
  "5074": "Gostaria de saber ",
  "5075": "e M",
  "5076": "quarta-feira, ",
  "5077": "a P",
  "5078": "Club",
  "5079": "flux",
  "5080": "cores ",
  "5081": "Marcadores: 2013, ",
  "5082": "centro-",
  "5083": "grej",
  "5084": "Confira ",
  "5085": ".\n\nImagem ",
  "5086": "as.\n\n\n\n",
  "5087": "a cont",
  "5088": "após a ",
  "5089": "Ut",
  "5090": "Utiliz",
  "5091": "dentro de ",
  "5092": "arc",
  "5093": "ação é ",
  "5094": "ais ou ",
  "5095": "trá",
  "5096": "ações do ",
  "5097": "3,",
  "5098": "LE",
  "5099": "Legislativ",
  "5100": "Executivo ",
  "5101": "Prefeito e ",
  "5102": "65",
  "5103": "Assist",
  "5104": "Nós ",
  "5105": "sede ",
  "5106": "criação de ",
  "5107": "anterior ",
  "5108": "ante",
  "5109": "Fund",
  "5110": "Brasileir",
  "5111": "b) ",
  "5112": "distr",
  "5113": "formas ",
  "5114": "assim",
  "5115": "sentido ",
  "5116": "front",
  "5117": "auxíli",
  "5118": "ir as ",
  "5119": "ei, ",
  "5120": "no que ",
  "5121": "patrimôni",
  "5122": "igien",
  "5123": "costum",
  "5124": "máxim",
  "5125": "possam ",
  "5126": "laz",
  "5127": "proteg",
  "5128": "Estado de ",
  "5129": "dí",
  "5130": "encont",
  "5131": "ressalv",
  "5132": "Cada ",
  "5133": "mandat",
  "5134": "correspond",
  "5135": "sessão ",
  "5136": "ultr",
  "5137": "criar ",
  "5138": "alização ",
  "5139": "ar ou ",
  "5140": "hon",
  "5141": "oria de ",
  "5142": "deliber",
  "5143": "nessa ",
  "5144": "lament",
  "5145": "sobre",
  "5146": "o nas ",
  "5147": "excet",
  "5148": "pessoal ",
  "5149": "realizar ",
  "5150": "ências e ",
  "5151": "discus",
  "5152": "estatut",
  "5153": "quando o ",
  "5154": "eiros, ",
  "5155": "complex",
  "5156": "prêm",
  "5157": "conclu",
  "5158": "ou\n\n",
  "5159": "ados\n\n",
  "5160": "economia ",
  "5161": "ia do ",
  "5162": "a”, ",
  "5163": "bem\n\n",
  "5164": "política ",
  "5165": "o com o ",
  "5166": "ivo, ",
  "5167": "as ou ",
  "5168": "classific",
  "5169": "4. ",
  "5170": "ura, ",
  "5171": "o para os ",
  "5172": "idos.\n\n",
  "5173": "horas ",
  "5174": "estado ",
  "5175": "agem do ",
  "5176": "processos ",
  "5177": "cim",
  "5178": "investiment",
  "5179": "emiss",
  "5180": "os seus ",
  "5181": "plic",
  "5182": "avanç",
  "5183": "bito ",
  "5184": "energia ",
  "5185": "armazen",
  "5186": "veg",
  "5187": "indiví",
  "5188": "indivídu",
  "5189": "ado na ",
  "5190": "concret",
  "5191": "preven",
  "5192": "vida, ",
  "5193": "a)",
  "5194": "ORES ",
  "5195": "º e ",
  "5196": ".”\n\nArt. ",
  "5197": "dia da ",
  "5198": "prens",
  "5199": "da Lei Orgânica Municipal pass",
  "5200": "audit",
  "5201": "tomar ",
  "5202": "Sou ",
  "5203": "icul",
  "5204": "a mod",
  "5205": "forma, ",
  "5206": " de abril de ",
  "5207": "rar",
  "5208": "emo",
  "5209": "comod",
  "5210": "Pois ",
  "5211": "tud",
  "5212": "devemos ",
  "5213": "Ou ",
  "5214": "resolver ",
  "5215": "talvez ",
  "5216": "o \"",
  "5217": "des ",
  "5218": "ex ",
  "5219": "TV ",
  "5220": "os por ",
  "5221": "muito bem ",
  "5222": "retir",
  "5223": "eira e ",
  "5224": "amigo ",
  "5225": "cre",
  "5226": "dobr",
  "5227": "a mesma ",
  "5228": "gosto de ",
  "5229": "interi",
  "5230": "Será ",
  "5231": "óp",
  "5232": "sac",
  "5233": "veja ",
  "5234": "então, ",
  "5235": "im de ",
  "5236": "e, a ",
  "5237": "ico da ",
  "5238": "houv",
  "5239": "plást",
  "5240": "ado (",
  "5241": "Norm",
  "5242": "descont",
  "5243": "traz ",
  "5244": "interessante ",
  "5245": "& ",
  "5246": "o e não ",
  "5247": "os!\n\n",
  "5248": "rápid",
  "5249": "eim",
  "5250": "fog",
  "5251": "or. ",
  "5252": "Olh",
  "5253": "afé ",
  "5254": "momentos ",
  "5255": "alin",
  "5256": "áu",
  "5257": "MAIS ",
  "5258": "cân",
  "5259": "Um dos ",
  "5260": "a gente ",
  "5261": "ing e ",
  "5262": "Hist",
  "5263": "din",
  "5264": "guerr",
  "5265": "dav",
  "5266": "fim da ",
  "5267": "h, ",
  "5268": "me sent",
  "5269": "inho, ",
  "5270": "american",
  "5271": "óle",
  "5272": "sm",
  "5273": "a mús",
  "5274": "map",
  "5275": "sinusite ",
  "5276": "gal",
  "5277": "INTER",
  "5278": "EU ",
  "5279": "an, ",
  "5280": "preci",
  "5281": "tranqu",
  "5282": "Mundo ",
  "5283": "camis",
  "5284": "Sistemas de ",
  "5285": "Por isso, ",
  "5286": "ATU",
  "5287": "relações raci",
  "5288": "déc",
  "5289": "maneir",
  "5290": "o como ",
  "5291": "próximo ",
  "5292": "Depois de ",
  "5293": "embar",
  "5294": "algo ",
  "5295": "apesar de ",
  "5296": "século ",
  "5297": "2014",
  "5298": "flor",
  "5299": "Jú",
  "5300": "valor de ",
  "5301": "ter um ",
  "5302": "Gon",
  "5303": "IMPORT",
  "5304": "precisam ",
  "5305": ".\n\nEm ",
  "5306": "diagnóst",
  "5307": "PE",
  "5308": "Reci",
  "5309": "realizadas ",
  "5310": "prova de ",
  "5311": "estarão ",
  "5312": "IF",
  "5313": "as inscrições ",
  "5314": "vagas ",
  "5315": "nos dias ",
  "5316": "Bras",
  "5317": "detalhes ",
  "5318": "volucion",
  "5319": "não tem ",
  "5320": "o re",
  "5321": "prazer ",
  "5322": "ateri",
  "5323": "oto ",
  "5324": "ART",
  "5325": "ICO",
  "5326": "as. O ",
  "5327": "Tenho interesse ",
  "5328": "o ler ",
  "5329": "o B",
  "5330": "ael ",
  "5331": "UP",
  "5332": "o... ",
  "5333": "álcool ",
  "5334": "ana ",
  "5335": "vendas ",
  "5336": "futeb",
  "5337": "equipe ",
  "5338": "operações ",
  "5339": "banda ",
  "5340": "Aqui ",
  "5341": "impot",
  "5342": "proveit",
  "5343": "robô",
  "5344": "centro-o",
  "5345": "centro-oeste, ",
  "5346": "Nacional, ",
  "5347": "Igrej",
  "5348": "Gol",
  "5349": "son ",
  "5350": "exper",
  "5351": "Ang",
  "5352": "?\n\n\n\n",
  "5353": "Zeca A",
  "5354": "Zeca Af",
  "5355": ".com.br",
  "5356": "venci",
  "5357": "estre ",
  "5358": "Ident",
  "5359": "água ",
  "5360": "13 ",
  "5361": "Vereadores ",
  "5362": "a e do ",
  "5363": "ÕES ",
  "5364": "dot",
  "5365": "-se-",
  "5366": "eleitor",
  "5367": "as:\n\n",
  "5368": "étr",
  "5369": "Plano ",
  "5370": "ar ao ",
  "5371": "prestar ",
  "5372": "à sua ",
  "5373": "bem-",
  "5374": "industri",
  "5375": "judici",
  "5376": "municipais, ",
  "5377": "públicos, ",
  "5378": "licenci",
  "5379": "adas para ",
  "5380": "III ",
  "5381": "execu",
  "5382": "incisos ",
  "5383": "autoridades ",
  "5384": "equival",
  "5385": "proib",
  "5386": "omin",
  "5387": "lucr",
  "5388": "Câmara Municipal, ",
  "5389": "vere",
  "5390": "anteced",
  "5391": "ário do ",
  "5392": "Secretários ",
  "5393": "Tribunal de ",
  "5394": "reuni",
  "5395": "comiss",
  "5396": "indireta, ",
  "5397": "crim",
  "5398": "extra",
  "5399": "Presidente da ",
  "5400": "parecer ",
  "5401": "crito ",
  "5402": "il e ",
  "5403": "nível de ",
  "5404": "nat",
  "5405": "até a ",
  "5406": "o de que ",
  "5407": "pedido ",
  "5408": "desenvolver ",
  "5409": "submet",
  "5410": "idades.\n\n",
  "5411": "responsáveis ",
  "5412": "am\n\n",
  "5413": "efic",
  "5414": "ico.\n\n",
  "5415": "coleg",
  "5416": "tais como ",
  "5417": "a melh",
  "5418": "capaz de ",
  "5419": "agem e ",
  "5420": "incid",
  "5421": "social ",
  "5422": "programas ",
  "5423": "examin",
  "5424": "consumid",
  "5425": "a loc",
  "5426": "a dist",
  "5427": "ização ",
  "5428": "ação para o ",
  "5429": "a man",
  "5430": "afin",
  "5431": "as/",
  "5432": "a saú",
  "5433": "lóg",
  "5434": "pré-",
  "5435": "nutri",
  "5436": "ura de ",
  "5437": "franqu",
  "5438": "culturais ",
  "5439": "region",
  "5440": "diss",
  "5441": "organizações ",
  "5442": "drog",
  "5443": "ação que ",
  "5444": "telev",
  "5445": "os, que ",
  "5446": "HO",
  "5447": "o - ",
  "5448": "a c",
  "5449": "jud",
  "5450": "temas ",
  "5451": "bai",
  "5452": "as!\n\n",
  "5453": "dão ",
  "5454": "não são ",
  "5455": "prai",
  "5456": "gran",
  "5457": "Então ",
  "5458": "ceu ",
  "5459": "drom",
  "5460": "viver ",
  "5461": "orme ",
  "5462": "D ",
  "5463": "enx",
  "5464": "surpre",
  "5465": "mesmo que ",
  "5466": "auto",
  "5467": "atitu",
  "5468": "aquil",
  "5469": "falh",
  "5470": "queremos ",
  "5471": "vezes, ",
  "5472": "am as ",
  "5473": "busca de ",
  "5474": "a que a ",
  "5475": "Todo ",
  "5476": "não me ",
  "5477": "os, mas ",
  "5478": "fazia ",
  "5479": "Can",
  "5480": "vai ser ",
  "5481": "delici",
  "5482": "anos.\n\n",
  "5483": "ponto ",
  "5484": "tab",
  "5485": "área de ",
  "5486": "ameaç",
  "5487": "viu ",
  "5488": "suporte ",
  "5489": "e o seu ",
  "5490": "É possibilit",
  "5491": "combin",
  "5492": "Pode ",
  "5493": "MAN",
  "5494": "rebr",
  "5495": "Pesquis",
  "5496": "tempo, ",
  "5497": "açúcar ",
  "5498": "Ric",
  "5499": "Estu",
  "5500": "Prov",
  "5501": "mim ",
  "5502": "ended",
  "5503": "gostei ",
  "5504": "ênis ",
  "5505": "f ",
  "5506": "ar-",
  "5507": "ear",
  "5508": "deveria ",
  "5509": "vender ",
  "5510": "all ",
  "5511": " G",
  "5512": "anhã, ",
  "5513": "as, a ",
  "5514": "cer ",
  "5515": "ologist",
  "5516": "ia que ",
  "5517": "méd",
  "5518": "bem, ",
  "5519": "ou no ",
  "5520": "n ",
  "5521": "livre",
  "5522": "., ",
  "5523": "ok",
  "5524": "progress",
  "5525": "ós-",
  "5526": "Trans",
  "5527": "concert",
  "5528": "a V",
  "5529": "garraf",
  "5530": "o maior ",
  "5531": "geralmente ",
  "5532": "IDADE ",
  "5533": "objetivo ",
  "5534": "ões e ",
  "5535": "brancos ",
  "5536": "rad",
  "5537": ". Aqu",
  "5538": "’ ",
  "5539": "iter",
  "5540": "% dos ",
  "5541": "mistur",
  "5542": "E O ",
  "5543": "presidente da ",
  "5544": "AS, ",
  "5545": "passo ",
  "5546": "a... ",
  "5547": "AMB",
  "5548": "profissional ",
  "5549": "Control",
  "5550": "o de M",
  "5551": "vestibul",
  "5552": "Vej",
  "5553": "se ins",
  "5554": "Tecn",
  "5555": "Vestib",
  "5556": "200 ",
  "5557": "ruz",
  "5558": "movimento ",
  "5559": "semelh",
  "5560": "a também ",
  "5561": "infant",
  "5562": "clique ",
  "5563": "voss",
  "5564": "Ev",
  "5565": "rost",
  "5566": "))",
  "5567": "DAS ",
  "5568": "Ach",
  "5569": "acontece ",
  "5570": "criativ",
  "5571": "Az",
  "5572": "ma",
  "5573": "orno ",
  "5574": "láb",
  "5575": "a.\n\nA",
  "5576": "Decor",
  "5577": "bar ",
  "5578": "nunc",
  "5579": "Jog",
  "5580": "manda ",
  "5581": "el de ",
  "5582": "cicl",
  "5583": ")-",
  "5584": "norte, ",
  "5585": "Be",
  "5586": "femin",
  "5587": "barzinho para sal",
  "5588": "Parabéns ",
  "5589": "a Civ",
  "5590": "tras",
  "5591": "Zeca Afons",
  "5592": "T&",
  "5593": "T&D",
  "5594": "Loj",
  "5595": "site da ",
  "5596": "as ao ",
  "5597": "l e ",
  "5598": "a funcion",
  "5599": "condições de ",
  "5600": "previs",
  "5601": "ável, ",
  "5602": "25 ",
  "5603": "MUN",
  "5604": "BO",
  "5605": "89",
  "5606": "59",
  "5607": "eio Ambi",
  "5608": "estabelecidos ",
  "5609": "os, o ",
  "5610": "área ",
  "5611": "far",
  "5612": "o númer",
  "5613": "facil",
  "5614": "áveis",
  "5615": "e:\n\n",
  "5616": "uli",
  "5617": "atori",
  "5618": "ime ",
  "5619": "estabelecer ",
  "5620": "lot",
  "5621": "zon",
  "5622": "obrigatóri",
  "5623": "empresari",
  "5624": "locais ",
  "5625": "hosp",
  "5626": "próprios ",
  "5627": "estabelec",
  "5628": "órgãos ",
  "5629": "do artigo ",
  "5630": "da Constituição Feder",
  "5631": "constitucion",
  "5632": "a sido ",
  "5633": "diretriz",
  "5634": "ito, ",
  "5635": "reais ",
  "5636": "quando se ",
  "5637": "afast",
  "5638": "põ",
  "5639": "ência m",
  "5640": "ífic",
  "5641": "dução ",
  "5642": "união ",
  "5643": "Presid",
  "5644": "substitu",
  "5645": "ições, ",
  "5646": "ecimento ",
  "5647": "procedimento ",
  "5648": "caput",
  "5649": "trinta ",
  "5650": "ações da ",
  "5651": "amento das ",
  "5652": "37",
  "5653": "adores.\n\n",
  "5654": "parec",
  "5655": "entidade ",
  "5656": "ente da ",
  "5657": "projetos de ",
  "5658": "tram",
  "5659": "turn",
  "5660": "extern",
  "5661": "agens de ",
  "5662": "qualific",
  "5663": "tempo de ",
  "5664": "ingu",
  "5665": "Governo ",
  "5666": "firm",
  "5667": "chef",
  "5668": "s\n\n",
  "5669": "após o ",
  "5670": "linha ",
  "5671": "a men",
  "5672": "vis ",
  "5673": "local ",
  "5674": "ainda, ",
  "5675": "os, a ",
  "5676": "e,\n\n",
  "5677": "96",
  "5678": "óveis ",
  "5679": "adores da ",
  "5680": "condição ",
  "5681": "estiver ",
  "5682": "dele ",
  "5683": "resum",
  "5684": "forem ",
  "5685": ". Para ",
  "5686": "fim",
  "5687": "o merc",
  "5688": "capacidade ",
  "5689": "incluindo ",
  "5690": "sempr",
  "5691": "estado de ",
  "5692": "setor ",
  "5693": "empresa, ",
  "5694": "estím",
  "5695": "estímul",
  "5696": "exau",
  "5697": "exaust",
  "5698": "ologi",
  "5699": "adas a ",
  "5700": ") de ",
  "5701": "antes",
  "5702": "feir",
  "5703": "artíst",
  "5704": "aestrutur",
  "5705": "destes ",
  "5706": "propriedade ",
  "5707": "alternativ",
  "5708": "prática ",
  "5709": "sobrev",
  "5710": "a pela ",
  "5711": "mulheres ",
  "5712": "íbri",
  "5713": "social",
  "5714": "aprendiz",
  "5715": "ão-",
  "5716": "tem o ",
  "5717": "crianças e ",
  "5718": "envolvid",
  "5719": "compon",
  "5720": "Terr",
  "5721": "rádi",
  "5722": " - O ",
  "5723": "4º ",
  "5724": "Rev",
  "5725": "16 ",
  "5726": "vigorar com a ",
  "5727": "entos ",
  "5728": "mais um ",
  "5729": "a\n\nA ",
  "5730": "al na ",
  "5731": ".”\n\n“Art. ",
  "5732": "osto",
  "5733": "35",
  "5734": " e o ",
  "5735": "ura e ",
  "5736": "ança e ",
  "5737": "trazer ",
  "5738": "linda ",
  "5739": "querem ",
  "5740": "muito mais ",
  "5741": "Essa ",
  "5742": "em sua ",
  "5743": "question",
  "5744": "consigo ",
  "5745": "feliz",
  "5746": "enfrent",
  "5747": "sua própria ",
  "5748": "breve ",
  "5749": "ando que ",
  "5750": "tal",
  "5751": "sentir ",
  "5752": "am e ",
  "5753": "ar seus ",
  "5754": "compreens",
  "5755": "resolv",
  "5756": "melhor, ",
  "5757": "ática, ",
  "5758": "acontecer ",
  "5759": "e.\n\n\n\n",
  "5760": "1ª ",
  "5761": "muitas vezes ",
  "5762": "anos e ",
  "5763": "1, ",
  "5764": "o), ",
  "5765": "as - ",
  "5766": "que está ",
  "5767": "Quanto ",
  "5768": "adoro ",
  "5769": "desenh",
  "5770": "chegu",
  "5771": "surpres",
  "5772": "er.\n\n",
  "5773": "nenhuma ",
  "5774": "Então, ",
  "5775": "autu",
  "5776": "Trat",
  "5777": "corrig",
  "5778": "mais",
  "5779": "Caso ",
  "5780": "selecion",
  "5781": "ente para ",
  "5782": "morr",
  "5783": "fur",
  "5784": "aplicativ",
  "5785": "as suas ",
  "5786": "os os ",
  "5787": "17 ",
  "5788": "além do ",
  "5789": "açúcar",
  "5790": "IA",
  "5791": "ética ",
  "5792": "Isso ",
  "5793": "níveis de ",
  "5794": "trás ",
  "5795": "eia ",
  "5796": "a com a ",
  "5797": "brilh",
  "5798": "famos",
  "5799": "elog",
  "5800": "Hoje ",
  "5801": "íngu",
  "5802": "Só ",
  "5803": "!! ",
  "5804": "comprar ",
  "5805": "Amig",
  "5806": "link",
  "5807": "comprei ",
  "5808": "mercado, ",
  "5809": "cedo ",
  "5810": "a me ",
  "5811": "lista de ",
  "5812": "série ",
  "5813": "geral ",
  "5814": "jo",
  "5815": "music",
  "5816": "anch",
  "5817": "of ",
  "5818": "inhos ",
  "5819": " de mai",
  "5820": "A C",
  "5821": "falar ",
  "5822": "ogram",
  "5823": "ly ",
  "5824": "ani",
  "5825": "Concelh",
  "5826": "Festival ",
  "5827": "PT",
  "5828": "concep",
  "5829": "naveg",
  "5830": "ATUAL",
  "5831": "ólog",
  "5832": "intelectu",
  "5833": "branquidade ",
  "5834": "empor",
  "5835": "modern",
  "5836": ", de ",
  "5837": "” (",
  "5838": "Segundo o ",
  "5839": ". As",
  "5840": "arl",
  "5841": "procedimentos ",
  "5842": "nordeste, ",
  "5843": "Entre ",
  "5844": "transformação ",
  "5845": "ologia, ",
  "5846": "agon",
  "5847": "). O ",
  "5848": "e. A ",
  "5849": "Mundi",
  "5850": "istic",
  "5851": "um de ",
  "5852": "roc",
  "5853": "eta, ",
  "5854": "pensar em ",
  "5855": "brinc",
  "5856": "ÉM ",
  "5857": ". E ",
  "5858": "cast",
  "5859": "ett",
  "5860": "Lis",
  "5861": "RJ",
  "5862": "contribuir ",
  "5863": "ber",
  "5864": "vestibular",
  "5865": "a saber ",
  "5866": "edu",
  "5867": "conta com ",
  "5868": "vagas, ",
  "5869": "Ensino M",
  "5870": "Ensino Médi",
  "5871": "Cat",
  "5872": "participar ",
  "5873": "definitiv",
  "5874": "música ",
  "5875": "São Paulo (",
  "5876": "er. ",
  "5877": "Cruz",
  "5878": "revolucion",
  "5879": "idé",
  "5880": "espírit",
  "5881": "vermelh",
  "5882": "apert",
  "5883": "be",
  "5884": "os como ",
  "5885": "Com o ",
  "5886": "em contato ",
  "5887": "SE ",
  "5888": "vídeo ",
  "5889": "agress",
  "5890": "meteor",
  "5891": "acert",
  "5892": "Praç",
  "5893": "crianças ",
  "5894": "ser um ",
  "5895": "ALG",
  "5896": "O DA ",
  "5897": "CL",
  "5898": "ÍDE",
  "5899": "pil",
  "5900": "kg",
  "5901": "candidatur",
  "5902": "jovem ",
  "5903": "Pos",
  "5904": "3/",
  "5905": "Sol",
  "5906": "Concurso ",
  "5907": "Confir",
  "5908": "Tom",
  "5909": "al.\n\n\n\n",
  "5910": "Nort",
  "5911": "barat",
  "5912": "medicamento ",
  "5913": "toque ",
  "5914": "Plano de ",
  "5915": "Inici",
  "5916": "afirmou ",
  "5917": "ilhas ",
  "5918": "Jorn",
  "5919": "energi",
  "5920": "sudeste, ",
  "5921": "sudeste, sul",
  "5922": "Concurs",
  "5923": "Post",
  "5924": "aguda ",
  "5925": "plac",
  "5926": "igreja ",
  "5927": "e G",
  "5928": "decoração de ",
  "5929": "edores ",
  "5930": "2015",
  "5931": "Imagem 4",
  "5932": "hah",
  "5933": "w ",
  "5934": "buqu",
  "5935": ".\n\n\n\nA ",
  "5936": "amento.\n\n",
  "5937": "ado ou ",
  "5938": "viamente ",
  "5939": "vaz",
  "5940": "a situ",
  "5941": ") - ",
  "5942": "1,",
  "5943": "\n\nT",
  "5944": "LH",
  "5945": "Câmara Municipal ",
  "5946": "32",
  "5947": "Process",
  "5948": "Dos ",
  "5949": "70 ",
  "5950": "Desenvolvimento ",
  "5951": "Educação ",
  "5952": "obe",
  "5953": "prec",
  "5954": "a.\n\nArt. ",
  "5955": "a legisl",
  "5956": "escola ",
  "5957": "saúde, ",
  "5958": "Region",
  "5959": "certific",
  "5960": "distrit",
  "5961": "Municipal, ",
  "5962": "apresentar ",
  "5963": "adora de ",
  "5964": "anual, ",
  "5965": "organização, ",
  "5966": "hou",
  "5967": "pontos de ",
  "5968": "tari",
  "5969": "circul",
  "5970": "utilização de ",
  "5971": "ares de ",
  "5972": "convêni",
  "5973": "vendas, ",
  "5974": "transmiss",
  "5975": "alugu",
  "5976": "funções ",
  "5977": "um, ",
  "5978": "justific",
  "5979": "a lei ",
  "5980": "renda ",
  "5981": "sindic",
  "5982": "decret",
  "5983": "final da ",
  "5984": "a-l",
  "5985": "interven",
  "5986": "seqü",
  "5987": "administração diret",
  "5988": "considerado ",
  "5989": "conforme o ",
  "5990": "alidade de ",
  "5991": "ante da ",
  "5992": "proposta ",
  "5993": "Qual",
  "5994": "realização do ",
  "5995": "apos",
  "5996": "aposent",
  "5997": "6. ",
  "5998": "cujo ",
  "5999": "64",
  "6000": "especial, ",
  "6001": "ando\n\n",
  "6002": "negoci",
  "6003": "Nos ",
  "6004": "3. ",
  "6005": "es a ",
  "6006": "para\n\n",
  "6007": "solid",
  "6008": "acr",
  "6009": "as,\n\n",
  "6010": "imento das ",
  "6011": "áxim",
  "6012": "relacionados ",
  "6013": "na\n\n",
  "6014": "previd",
  "6015": "participação ",
  "6016": "gur",
  "6017": "imóveis, ",
  "6018": "prédi",
  "6019": "Bol",
  "6020": "enas de ",
  "6021": "dos\n\n",
  "6022": "atender ",
  "6023": "ibilidade ",
  "6024": "féri",
  "6025": "a e a ",
  "6026": "sete ",
  "6027": "benefici",
  "6028": "cron",
  "6029": "itens ",
  "6030": "os, as ",
  "6031": "evid",
  "6032": "deseja ",
  "6033": "os, e ",
  "6034": "se\n\n",
  "6035": "características ",
  "6036": "amente a ",
  "6037": "Municipal de ",
  "6038": "Def",
  "6039": "ao\n\n",
  "6040": "primor",
  "6041": "estimul",
  "6042": "comunit",
  "6043": "ampli",
  "6044": "edifíci",
  "6045": "final, ",
  "6046": "extens",
  "6047": "sobreviv",
  "6048": "efeito ",
  "6049": "pis",
  "6050": "garantindo ",
  "6051": "alunos ",
  "6052": "ível, ",
  "6053": "deles ",
  "6054": "ações dos ",
  "6055": "compromet",
  "6056": "sugest",
  "6057": "or na ",
  "6058": "Bom",
  "6059": "o de 200",
  "6060": "permanec",
  "6061": "inguém ",
  "6062": "ia.\n\n",
  "6063": "gord",
  "6064": "peso ",
  "6065": "gir",
  "6066": "Nick Vujicic ",
  "6067": "índrom",
  "6068": "grupo de ",
  "6069": "Planej",
  "6070": "Lev",
  "6071": "simples e ",
  "6072": "objetivo de ",
  "6073": "Sua ",
  "6074": "narr",
  "6075": "é possível ",
  "6076": "Deus, ",
  "6077": "ada ao ",
  "6078": "desesper",
  "6079": "si ",
  "6080": "antes que ",
  "6081": "írito ",
  "6082": "encar",
  "6083": "lid",
  "6084": "que nos ",
  "6085": "eventos ",
  "6086": "puls",
  "6087": "redo ",
  "6088": "Son",
  "6089": "obras de ",
  "6090": "aproximadamente ",
  "6091": "realizada ",
  "6092": "eria ",
  "6093": "alguma cois",
  "6094": "olhos ",
  "6095": "tipos de ",
  "6096": "estrel",
  "6097": "Tenh",
  "6098": "só",
  "6099": "perdi",
  "6100": "normalmente ",
  "6101": "refei",
  "6102": "adeir",
  "6103": "tem uma ",
  "6104": "Bah",
  "6105": "tipo ",
  "6106": "brin",
  "6107": "as mã",
  "6108": "assalt",
  "6109": "es dos ",
  "6110": "repar",
  "6111": "recentemente ",
  "6112": "existe ",
  "6113": "érci",
  "6114": "6.",
  "6115": "Programa de ",
  "6116": "monitor",
  "6117": "os.\n\nO ",
  "6118": "o que o ",
  "6119": "colocar ",
  "6120": "ático ",
  "6121": "casa do ",
  "6122": "ram ",
  "6123": "iu",
  "6124": "Pel",
  "6125": "agens",
  "6126": ".\n\nPara ",
  "6127": "Têm ",
  "6128": "a possibilidade de ",
  "6129": "ares.\n\n",
  "6130": "É possibilitado a ",
  "6131": "rai",
  "6132": "certamente ",
  "6133": "ico de ",
  "6134": "perig",
  "6135": "pouco ",
  "6136": "Gen",
  "6137": "empreended",
  "6138": "ight",
  "6139": "Nik",
  "6140": "Históri",
  "6141": "cedo, ",
  "6142": "fras",
  "6143": "Faz",
  "6144": "Sen",
  "6145": "vc ",
  "6146": "aqui e ",
  "6147": "údi",
  "6148": "agens, ",
  "6149": "MUITO ",
  "6150": "AMENTE ",
  "6151": "a mãe ",
  "6152": "levant",
  "6153": "infecção ",
  "6154": "muito m",
  "6155": "comig",
  "6156": "!!, ",
  "6157": "the ",
  "6158": "fora do ",
  "6159": "horr",
  "6160": "vic",
  "6161": "vocês",
  "6162": "países ",
  "6163": "primeiras ",
  "6164": " de julho, 2018: ",
  "6165": "kkkk",
  "6166": "kh",
  "6167": "bot",
  "6168": "tranquil",
  "6169": "VEL",
  "6170": "a...\n\n",
  "6171": "Meu ",
  "6172": "anos do ",
  "6173": "Oeiras\n\n",
  "6174": "Oeiras ",
  "6175": "figur",
  "6176": "rect",
  "6177": "Comunic",
  "6178": "Arqu",
  "6179": "Associação ",
  "6180": "festiv",
  "6181": " de J",
  "6182": "Man",
  "6183": "policiais ",
  "6184": "entrada ",
  "6185": "céu ",
  "6186": "ais no ",
  "6187": "atriz",
  "6188": "onde o ",
  "6189": "arei ",
  "6190": "elementos ",
  "6191": "como uma ",
  "6192": "categoria ",
  "6193": "in, ",
  "6194": "europ",
  "6195": "a” ",
  "6196": "Berl",
  "6197": "crever ",
  "6198": "reforç",
  "6199": "Cert",
  "6200": "Our",
  "6201": "otimiz",
  "6202": "sofistic",
  "6203": "os) ",
  "6204": "PAS",
  "6205": "o, um ",
  "6206": "a e o ",
  "6207": "Estud",
  "6208": "Passo ",
  "6209": "amigos ",
  "6210": "riqu",
  "6211": "mite ",
  "6212": "recebeu ",
  "6213": "avent",
  "6214": "as.\n\nA ",
  "6215": "fique ",
  "6216": "possíveis ",
  "6217": ".\n\nF",
  "6218": "zi",
  "6219": "Doc",
  "6220": "ce ",
  "6221": "res, ",
  "6222": "osos ",
  "6223": "as sobre ",
  "6224": "antes da ",
  "6225": "Estado do ",
  "6226": "Porto ",
  "6227": ".\n\nOs ",
  "6228": "obili",
  "6229": "site www.",
  "6230": "entre os dias ",
  "6231": "Pat",
  "6232": "Vestibular ",
  "6233": "0,00",
  "6234": "Market",
  "6235": "Entre os ",
  "6236": "egóci",
  "6237": "direcion",
  "6238": "No entanto, ",
  "6239": "EC",
  "6240": "consciência de ",
  "6241": "congress",
  "6242": "\"A ",
  "6243": "comunist",
  "6244": "ad ",
  "6245": "to: ",
  "6246": "aconteceu ",
  "6247": "foi o ",
  "6248": "paz",
  "6249": "a sin",
  "6250": "mãos ",
  "6251": "os?\n\n",
  "6252": "espir",
  "6253": "amar",
  "6254": "como funcion",
  "6255": "e, e ",
  "6256": "ESTR",
  "6257": "O que ",
  "6258": "VOC",
  "6259": "VOCÊ",
  "6260": "AM ",
  "6261": "AO ",
  "6262": "CONT",
  "6263": "AQUI ",
  "6264": "LA",
  "6265": "PESSO",
  "6266": "FE",
  "6267": "DIC",
  "6268": "KK",
  "6269": "gradeç",
  "6270": "arte ",
  "6271": "oportunidade ",
  "6272": "ton ",
  "6273": "convidad",
  "6274": "segment",
  "6275": "Téc",
  "6276": "Luiz ",
  "6277": "Dav",
  "6278": "a sem ",
  "6279": "jornalist",
  "6280": "preg",
  "6281": "ção. ",
  "6282": "arquitetos ",
  "6283": "% das ",
  "6284": "brit",
  "6285": "acessóri",
  "6286": "partamento ",
  "6287": "And",
  "6288": "ando um ",
  "6289": "sombr",
  "6290": "trag",
  "6291": "Adri",
  "6292": "suspeit",
  "6293": "Águ",
  "6294": "terça-feira (",
  "6295": "concurso, ",
  "6296": "nordeste, norte, ",
  "6297": "Joh",
  "6298": "US$ ",
  "6299": "José ",
  "6300": "Bat",
  "6301": "ation",
  "6302": " foi ",
  "6303": "ita ",
  "6304": "pharmaton ",
  "6305": "pára-qued",
  "6306": "Expos",
  "6307": "trasiz",
  "6308": "oma de ",
  "6309": "Dois ",
  "6310": "ódig",
  "6311": "deverá ser ",
  "6312": "5. ",
  "6313": "passo",
  "6314": "ficará ",
  "6315": "direito de ",
  "6316": "o sistem",
  "6317": "aço ",
  "6318": "Inter",
  "6319": "Compet",
  "6320": "Estr",
  "6321": "DIRE",
  "6322": "Previd",
  "6323": "Prot",
  "6324": "SIT",
  "6325": "Município de ",
  "6326": "Bom Conselh",
  "6327": "Pern",
  "6328": "Pernamb",
  "6329": "ico-",
  "6330": "nico ",
  "6331": "inferior ",
  "6332": "Tribunal ",
  "6333": "desenvolvimento do ",
  "6334": "endo",
  "6335": "local, ",
  "6336": "edade de ",
  "6337": "árias e ",
  "6338": "territóri",
  "6339": "higien",
  "6340": "respectivas ",
  "6341": "trân",
  "6342": "disciplin",
  "6343": "suj",
  "6344": "o, por ",
  "6345": "necessários ",
  "6346": "medid",
  "6347": "na forma da lei",
  "6348": "cos e ",
  "6349": "atéri",
  "6350": "ções e ",
  "6351": "profissional, ",
  "6352": "jurídica ",
  "6353": "exercício ",
  "6354": "início da ",
  "6355": "por meio de ",
  "6356": "fins ",
  "6357": "ano que ",
  "6358": "pluri",
  "6359": "concessão de ",
  "6360": "Secretários Municip",
  "6361": "ultrap",
  "6362": "fundacion",
  "6363": "Município e ",
  "6364": "crime ",
  "6365": "sob a ",
  "6366": "compromiss",
  "6367": "eleição ",
  "6368": "ente. ",
  "6369": "aticamente ",
  "6370": "composição ",
  "6371": "projeto de lei ",
  "6372": "recus",
  "6373": "ares e ",
  "6374": "nas suas ",
  "6375": "ormente ",
  "6376": "inscrit",
  "6377": "intim",
  "6378": "opini",
  "6379": "quar",
  "6380": "oito ",
  "6381": "ido e ",
  "6382": "sistemas de ",
  "6383": "as med",
  "6384": "I e ",
  "6385": "cargo de ",
  "6386": "contrato ",
  "6387": "nos termos da ",
  "6388": "e) ",
  "6389": "Relatóri",
  "6390": "especific",
  "6391": "ar dos ",
  "6392": "depende ",
  "6393": "titular",
  "6394": "a serem ",
  "6395": "casos, ",
  "6396": "participação de ",
  "6397": "áveis, ",
  "6398": "vin",
  "6399": "ários de ",
  "6400": "estado, ",
  "6401": "mercado de ",
  "6402": "meses ",
  "6403": "ção\n\n",
  "6404": "virtu",
  "6405": "ual ",
  "6406": "executar ",
  "6407": "MINIST",
  "6408": "MINISTR",
  "6409": "o, de ",
  "6410": "ição dos ",
  "6411": "al,\n\n",
  "6412": "por cont",
  "6413": "ando por ",
  "6414": "inclus",
  "6415": "as dos ",
  "6416": "mecan",
  "6417": "ar suas ",
  "6418": "conhecimento ",
  "6419": "ência\n\n",
  "6420": "oit",
  "6421": "áreas de ",
  "6422": "colet",
  "6423": "elétr",
  "6424": "acar",
  "6425": "baixa ",
  "6426": "indú",
  "6427": "indústri",
  "6428": "trabalho e ",
  "6429": "psicológ",
  "6430": "equil",
  "6431": "igual",
  "6432": "antr",
  "6433": "bairr",
  "6434": "bibliotec",
  "6435": "da a ",
  "6436": "artesan",
  "6437": "faix",
  "6438": "ando sua ",
  "6439": "aís ",
  "6440": "contrário, ",
  "6441": "MAR",
  "6442": ".\n\n“",
  "6443": "ica\n\n",
  "6444": "endo o ",
  "6445": "nós, ",
  "6446": "let ",
  "6447": "ser uma ",
  "6448": "câmar",
  "6449": "Vida ",
  "6450": "g ",
  "6451": "depress",
  "6452": "dupl",
  "6453": "s (",
  "6454": "enorme ",
  "6455": "do.\n\n",
  "6456": "advers",
  "6457": "perfeição ",
  "6458": "que ele ",
  "6459": "fí",
  "6460": "é necessário ",
  "6461": "ando no ",
  "6462": "am com ",
  "6463": "completamente ",
  "6464": "Viv",
  "6465": "ado que ",
  "6466": "atravess",
  "6467": "gat",
  "6468": "ável e ",
  "6469": "batalh",
  "6470": "marca ",
  "6471": "parte de ",
  "6472": "tudo o que ",
  "6473": "Mant",
  "6474": "Agora ",
  "6475": "pacientes ",
  "6476": "as mulh",
  "6477": "a marc",
  "6478": "memóri",
  "6479": "Bem, ",
  "6480": "mol",
  "6481": "ei e ",
  "6482": "m de ",
  "6483": "âmetr",
  "6484": "líqu",
  "6485": "ram",
  "6486": "posso ",
  "6487": "eu não ",
  "6488": "crem",
  "6489": "inha e ",
  "6490": "merec",
  "6491": "a. E ",
  "6492": "os à ",
  "6493": "ran",
  "6494": "divid",
  "6495": "parte da ",
  "6496": "adas com ",
  "6497": "delas ",
  "6498": "ja ",
  "6499": "Entret",
  "6500": "ina.\n\n",
  "6501": "advog",
  "6502": "matr",
  "6503": "o D",
  "6504": "Melh",
  "6505": "ca",
  "6506": "Prev",
  "6507": "cenário ",
  "6508": "disput",
  "6509": "vitóri",
  "6510": "resposta ",
  "6511": "chor",
  "6512": "armente identicamente conjuntamente ",
  "6513": "colater",
  "6514": "Têm a possibilidade de ",
  "6515": "brasileiro ",
  "6516": "clic",
  "6517": "çãeste ",
  "6518": "inflam",
  "6519": "êut",
  "6520": "ando de ",
  "6521": "ilia ",
  "6522": "verdade, ",
  "6523": "você não ",
  "6524": "Result",
  "6525": "prova ",
  "6526": ": “",
  "6527": "a solução ",
  "6528": "rei",
  "6529": "Hor",
  "6530": "inglês",
  "6531": "Wor",
  "6532": "explica ",
  "6533": "retrat",
  "6534": "descobrir ",
  "6535": "ator ",
  "6536": "od ",
  "6537": "fim, ",
  "6538": "entes. ",
  "6539": "o mas ",
  "6540": "chamado ",
  "6541": "dúvida ",
  "6542": "rum",
  "6543": "por caus",
  "6544": "davi ",
  "6545": "durante a ",
  "6546": "arrum",
  "6547": "acabei ",
  "6548": "fizeram ",
  "6549": "escut",
  "6550": "NET",
  "6551": "wit",
  "6552": "x, ",
  "6553": "is\n\n",
  "6554": "01",
  "6555": "inch",
  "6556": "a falta de ",
  "6557": "trou",
  "6558": "troux",
  "6559": "achei ",
  "6560": "os/",
  "6561": "cho",
  "6562": "fundo ",
  "6563": "capt",
  "6564": "provavelmente ",
  "6565": "hur",
  "6566": "UD",
  "6567": "entregu",
  "6568": "Boa ",
  "6569": "fum",
  "6570": "icas de ",
  "6571": "hora do ",
  "6572": "Vil",
  "6573": "eur",
  "6574": "Internacional de ",
  "6575": "Mont",
  "6576": "Salv",
  "6577": "eléc",
  "6578": "trabalhos ",
  "6579": "ora de ",
  "6580": "sos ",
  "6581": "augur",
  "6582": "web",
  "6583": "endereço ",
  "6584": "marketing ",
  "6585": "ensai",
  "6586": "branco",
  "6587": "alism",
  "6588": "profiss",
  "6589": "forte ",
  "6590": "empreit",
  "6591": "ook",
  "6592": "capítul",
  "6593": "a partir de ",
  "6594": "istas, ",
  "6595": "se re",
  "6596": "como m",
  "6597": "Berlim ",
  "6598": "ic ",
  "6599": "moder",
  "6600": "jetiv",
  "6601": "ografia ",
  "6602": "Mart",
  "6603": "teór",
  "6604": "franc",
  "6605": "Para o ",
  "6606": "3%",
  "6607": "que tem ",
  "6608": "comunicação ",
  "6609": ", os ",
  "6610": "gent",
  "6611": "ATIV",
  "6612": "UTUR",
  "6613": "fotos ",
  "6614": "responder ",
  "6615": "Assim ",
  "6616": "ela, ",
  "6617": "re-se ",
  "6618": "já está ",
  "6619": "\".\n\n",
  "6620": "Sal",
  "6621": "Francis",
  "6622": "Estamos ",
  "6623": "Bus",
  "6624": "para uma ",
  "6625": "não sab",
  "6626": "/10",
  "6627": "Bu",
  "6628": "edu.br",
  "6629": "Fís",
  "6630": "Serão ",
  "6631": "ção.\n\n",
  "6632": "a que o ",
  "6633": "presenci",
  "6634": "as, que ",
  "6635": "Mús",
  "6636": "interior ",
  "6637": "informações, ",
  "6638": "Quant",
  "6639": "Mé",
  "6640": "segue ",
  "6641": "Você está ",
  "6642": "Home ",
  "6643": "conos",
  "6644": "Ela ",
  "6645": "colo",
  "6646": "Um passo ",
  "6647": "Um passo adi",
  "6648": "Um passo adiante, ",
  "6649": "Um passo adiante, dois ",
  "6650": "Um passo adiante, dois passos ",
  "6651": "Um passo adiante, dois passos atr",
  "6652": "Que fazer",
  "6653": "dito ",
  "6654": "el e ",
  "6655": "\"O ",
  "6656": "ido.\n\n",
  "6657": "ataqu",
  "6658": "a sens",
  "6659": "corrida ",
  "6660": ":4",
  "6661": "ali ",
  "6662": "recorr",
  "6663": "simplesmente ",
  "6664": "26 ",
  "6665": "*\n\n",
  "6666": "apresentam ",
  "6667": "ar (",
  "6668": "foss",
  "6669": "esquec",
  "6670": "encant",
  "6671": "Respon",
  "6672": "BLOG DO ",
  "6673": "LIN",
  "6674": "PP",
  "6675": "IMPORTÂ",
  "6676": "IMPORTÂNCIA ",
  "6677": "VÍDE",
  "6678": "A E ",
  "6679": "ACI",
  "6680": "ingestão ",
  "6681": "gostaria de saber ",
  "6682": "PSD",
  "6683": "retorn",
  "6684": "o muito de ",
  "6685": "o,",
  "6686": "terça-feira, ",
  "6687": "arian",
  "6688": "partir de ",
  "6689": "Ab",
  "6690": "paciente ",
  "6691": "Us",
  "6692": "Leite ",
  "6693": "ficam ",
  "6694": "médic",
  "6695": "irrit",
  "6696": "Aliment",
  "6697": "celular ",
  "6698": "aparelh",
  "6699": "jogo ",
  "6700": "futebol",
  "6701": "Sin",
  "6702": "preço ",
  "6703": "fim de ",
  "6704": "casal ",
  "6705": "Fornec",
  "6706": "pare",
  "6707": "Vitória ",
  "6708": "nar",
  "6709": "Var",
  "6710": "…\n\nO ",
  "6711": "Nova ",
  "6712": "Agência ",
  "6713": "Ministério da ",
  "6714": "es)\n\n",
  "6715": "acidente ",
  "6716": "temperatur",
  "6717": "volum",
  "6718": "Os",
  "6719": "o de 2017",
  "6720": "hot",
  "6721": "Sapat",
  "6722": "experiment",
  "6723": "o de 2018",
  "6724": "Gonz",
  "6725": "Gonzag",
  "6726": "*-",
  "6727": "seios ",
  "6728": "BR-",
  "6729": "Temp",
  "6730": "Até ",
  "6731": "link ",
  "6732": "eu, ",
  "6733": ". Ap",
  "6734": "cartão de ",
  "6735": "previamente ",
  "6736": "portador",
  "6737": "Dig",
  "6738": "e/ou ",
  "6739": "Identific",
  "6740": "vul",
  "6741": "Div",
  "6742": "IZAÇÃO ",
  "6743": "39",
  "6744": "Administração Públ",
  "6745": "Serviços ",
  "6746": "100",
  "6747": "Publ",
  "6748": "DIV",
  "6749": "Ur",
  "6750": "Social ",
  "6751": "189",
  "6752": "196",
  "6753": "territori",
  "6754": "-se-á ",
  "6755": "si",
  "6756": "o e o ",
  "6757": "Fundação ",
  "6758": "o número de ",
  "6759": "a del",
  "6760": "em.\n\n",
  "6761": "ação ao ",
  "6762": "perante ",
  "6763": "sua compet",
  "6764": "obrigatori",
  "6765": "edific",
  "6766": "conveni",
  "6767": "renov",
  "6768": "rodovi",
  "6769": "emerg",
  "6770": "ital",
  "6771": "idos em ",
  "6772": "esclar",
  "6773": "ar pela ",
  "6774": "e das ",
  "6775": "casos previst",
  "6776": "orientação ",
  "6777": "nul",
  "6778": "inção ",
  "6779": "o, para ",
  "6780": "aquis",
  "6781": "apropri",
  "6782": "Comissão ",
  "6783": "ar os seus ",
  "6784": "quinze ",
  "6785": "subsídi",
  "6786": "razão ",
  "6787": "estabelecido ",
  "6788": "ultrapass",
  "6789": "ar o m",
  "6790": "informações sobre ",
  "6791": "vet",
  "6792": "contas ",
  "6793": "ica",
  "6794": "prática de ",
  "6795": "plom",
  "6796": "terceiro ",
  "6797": "partid",
  "6798": "civil ",
  "6799": "extraordinári",
  "6800": "cargos ",
  "6801": "34",
  "6802": "ordin",
  "6803": "reclam",
  "6804": "orçamentári",
  "6805": "projetos ",
  "6806": "no âmbito do ",
  "6807": "receita ",
  "6808": "ter a ",
  "6809": "circun",
  "6810": "ato, ",
  "6811": "70",
  "6812": "ibiliz",
  "6813": "centraliz",
  "6814": "uni",
  "6815": "das suas ",
  "6816": "limites ",
  "6817": "os,\n\n",
  "6818": "ará o ",
  "6819": "a até ",
  "6820": "o, os ",
  "6821": "ar a sua ",
  "6822": "ências, ",
  "6823": "dispositiv",
  "6824": "epcion",
  "6825": "devid",
  "6826": "realização da ",
  "6827": "mudanç",
  "6828": "vantagens ",
  "6829": "ante\n\n",
  "6830": "endo a ",
  "6831": "tarif",
  "6832": "2. ",
  "6833": "em-se ",
  "6834": "espaços ",
  "6835": "esport",
  "6836": "parágrafo ",
  "6837": "seis ",
  "6838": "rup",
  "6839": "Pró",
  "6840": "íp",
  "6841": "ões\n\n",
  "6842": "como as ",
  "6843": "ordem ",
  "6844": "as das ",
  "6845": "ADMINISTR",
  "6846": "eros",
  "6847": "ir\n\n",
  "6848": "a de que ",
  "6849": "3º ",
  "6850": "o os ",
  "6851": "abrang",
  "6852": "eio de ",
  "6853": "Não se ",
  "6854": "anteci",
  "6855": "ester",
  "6856": "mic",
  "6857": "mecanism",
  "6858": "ambiente, ",
  "6859": "naturais ",
  "6860": "tecnológ",
  "6861": "ismo",
  "6862": "mão de ",
  "6863": "alização de ",
  "6864": "abast",
  "6865": "sociais, ",
  "6866": "ecológ",
  "6867": ". Em ",
  "6868": "andon",
  "6869": "abilit",
  "6870": "prev",
  "6871": "Saúde",
  "6872": "infânci",
  "6873": "O E ",
  "6874": "ados do ",
  "6875": "urn",
  "6876": "valoriz",
  "6877": "did",
  "6878": "chamada ",
  "6879": "grau de ",
  "6880": "profund",
  "6881": "al, o ",
  "6882": "definir ",
  "6883": "áticas ",
  "6884": "despert",
  "6885": "ventu",
  "6886": "segurança ",
  "6887": "ação no ",
  "6888": "Art. 2",
  "6889": "porém, ",
  "6890": "texto ",
  "6891": "ao mesmo ",
  "6892": "mil",
  "6893": "seguinte redação:\n\n",
  "6894": "fir",
  "6895": "am a vigorar com a ",
  "6896": "ensino médi",
  "6897": ". O artigo ",
  "6898": "cido ",
  "6899": "imprens",
  "6900": "ao seu ",
  "6901": "uso",
  "6902": "anos",
  "6903": "ileg",
  "6904": "a sobre ",
  "6905": "adult",
  "6906": "inos ",
  "6907": "cardi",
  "6908": "tran",
  "6909": "mam",
  "6910": "ponto de vist",
  "6911": "certeza que ",
  "6912": "éli",
  "6913": "cristã",
  "6914": "passou a ",
  "6915": "Financ",
  "6916": "e também ",
  "6917": "a tar",
  "6918": "vida.\n\n",
  "6919": "ando com ",
  "6920": "; e ",
  "6921": "enten",
  "6922": "meio de ",
  "6923": "ações que ",
  "6924": "uma l",
  "6925": "escolher ",
  "6926": "experiências ",
  "6927": "se não ",
  "6928": "o que nos ",
  "6929": "Algumas ",
  "6930": "venced",
  "6931": "isso é ",
  "6932": "qual o ",
  "6933": "Saib",
  "6934": "Fun",
  "6935": "posicion",
  "6936": "cidade, ",
  "6937": "Carlos ",
  "6938": "Assem",
  "6939": "Assembl",
  "6940": "asta ",
  "6941": "urgia ",
  "6942": "construt",
  "6943": "ica. ",
  "6944": "faz com ",
  "6945": "actu",
  "6946": "nest",
  "6947": "a\", ",
  "6948": "no Brasil ",
  "6949": "desen",
  "6950": "comand",
  "6951": " P",
  "6952": "minhas ",
  "6953": "foi um ",
  "6954": "abriu ",
  "6955": "todo mundo ",
  "6956": "inha, ",
  "6957": "adquirir ",
  "6958": ".\n\nO",
  "6959": "evolu",
  "6960": "ótima ",
  "6961": "Hav",
  "6962": "ado um ",
  "6963": "a já ",
  "6964": "pois, ",
  "6965": "do D",
  "6966": "/08",
  "6967": "fato ",
  "6968": "o com a ",
  "6969": "Meio Ambi",
  "6970": "ição. ",
  "6971": "pedido de ",
  "6972": ");\n\n",
  "6973": "-B",
  "6974": "al – ",
  "6975": "falta de ",
  "6976": "reconhec",
  "6977": "acesse ",
  "6978": "nu",
  "6979": "a para os ",
  "6980": ". R",
  "6981": "íamos ",
  "6982": "ou e ",
  "6983": "as; ",
  "6984": "belez",
  "6985": "povo ",
  "6986": "Ó ",
  "6987": "dia de ",
  "6988": "similarmente identicamente conjuntamente ",
  "6989": "POR D",
  "6990": "vir ",
  "6991": ".\n\nEu ",
  "6992": "esqueç",
  "6993": "difícil ",
  "6994": "o, é ",
  "6995": "ganhar dinheiro ",
  "6996": "praticamente ",
  "6997": "construir ",
  "6998": "Holl",
  "6999": "elogi",
  "7000": "cérebr",
  "7001": "Inf",
  "7002": "Robert",
  "7003": "Luci",
  "7004": "conheç",
  "7005": "nerv",
  "7006": "qui",
  "7007": "?, ",
  "7008": "dor",
  "7009": "saí ",
  "7010": "médico ",
  "7011": "vídeos ",
  "7012": "duas vezes ",
  "7013": "ins, ",
  "7014": "o natur",
  "7015": "ras",
  "7016": "rotin",
  "7017": "mas, ",
  "7018": "encontrei ",
  "7019": "ack ",
  "7020": "OS, ",
  "7021": "che",
  "7022": "king ",
  "7023": "gam",
  "7024": "var",
  "7025": "documentos ",
  "7026": "SIG",
  "7027": "aaaa",
  "7028": "namor",
  "7029": "IDAD",
  "7030": "fug",
  "7031": "da manhã",
  "7032": "bur",
  "7033": "aulas ",
  "7034": "ite, ",
  "7035": "encaix",
  "7036": "conseguiu ",
  "7037": "pint",
  "7038": "PEN",
  "7039": "verg",
  "7040": "imprim",
  "7041": "lida ",
  "7042": "mensagem ",
  "7043": "s: ",
  "7044": "Sistemas de Inform",
  "7045": "Portugues",
  "7046": "Hum",
  "7047": "Prom",
  "7048": "obj",
  "7049": "e.",
  "7050": "recolh",
  "7051": "…\n\n\n\n",
  "7052": "seguida, ",
  "7053": "história ",
  "7054": "autores ",
  "7055": "chance de ",
  "7056": "“A ",
  "7057": "ney ",
  "7058": "Um",
  "7059": "ano.\n\n",
  "7060": "agud",
  "7061": "adas",
  "7062": "particul",
  "7063": "clas",
  "7064": ". Ag",
  "7065": "a\n\nO ",
  "7066": "escal",
  "7067": "dentro da ",
  "7068": "passou ",
  "7069": "ia para ",
  "7070": "e F",
  "7071": "aparecer ",
  "7072": "reform",
  "7073": "cos de ",
  "7074": "inem",
  "7075": "mascul",
  "7076": "Sociais ",
  "7077": "Belo H",
  "7078": "Belo Horiz",
  "7079": "Belo Horizont",
  "7080": "gas",
  "7081": "ÕES",
  "7082": "Portugal, ",
  "7083": "dram",
  "7084": "- A ",
  "7085": "poucas ",
  "7086": "!!! ",
  "7087": "TAMB",
  "7088": "oferecidos ",
  "7089": "pian",
  "7090": "Francisc",
  "7091": "e R",
  "7092": "OR ",
  "7093": "tinham ",
  "7094": "correu ",
  "7095": "uma boa ",
  "7096": "): ",
  "7097": "evitar ",
  "7098": "e!\n\n",
  "7099": "As inscrições ",
  "7100": "o de 2013",
  "7101": "60",
  "7102": "23 ",
  "7103": "acontecerá ",
  "7104": "Mat",
  "7105": "mais informações sobre o ",
  "7106": "total de ",
  "7107": "Assunt",
  "7108": ".00",
  "7109": "45",
  "7110": "Itab",
  "7111": "seleção ",
  "7112": "janeir",
  "7113": "quinta-feira (",
  "7114": "a é uma ",
  "7115": ". Ele ",
  "7116": "Lux",
  "7117": "por isso ",
  "7118": "Nossas ",
  "7119": "os. A ",
  "7120": "se encontr",
  "7121": "acordo com ",
  "7122": "orte ",
  "7123": "“S",
  "7124": "ações. ",
  "7125": "pau ",
  "7126": "i das ",
  "7127": "pênis ",
  "7128": "mast",
  "7129": "série de ",
  "7130": "exo ",
  "7131": "homens ",
  "7132": "jan",
  "7133": "o materi",
  "7134": "Espírit",
  "7135": "pur",
  "7136": "ido por ",
  "7137": "o...\n\n",
  "7138": "ar seu ",
  "7139": "ura do ",
  "7140": "Livr",
  "7141": "?! ",
  "7142": "dia a ",
  "7143": "não sei ",
  "7144": "C e ",
  "7145": "!!\n\n",
  "7146": "a família ",
  "7147": "22h",
  "7148": "(((",
  "7149": "CRE",
  "7150": "TE",
  "7151": "O DO ",
  "7152": "OB",
  "7153": "A DA ",
  "7154": "ÇÃO",
  "7155": "DEIX",
  "7156": "SOBR",
  "7157": "ais na ",
  "7158": "PÚBLIC",
  "7159": "pele.\n\n",
  "7160": "já",
  "7161": "artist",
  "7162": "Possu",
  "7163": "Gostei ",
  "7164": "Congresso ",
  "7165": "ork",
  "7166": "lider",
  "7167": "paul",
  "7168": "alto ",
  "7169": "redu",
  "7170": "álcool",
  "7171": "\n\nF",
  "7172": "band",
  "7173": ").\n\n\n\n",
  "7174": "roub",
  "7175": "Fór",
  "7176": "medicamentos ",
  "7177": "madeira ",
  "7178": "resc",
  "7179": "compact",
  "7180": "noite de ",
  "7181": "sua empres",
  "7182": "britân",
  "7183": "escur",
  "7184": "Men",
  "7185": "str",
  "7186": "impotência ",
  "7187": "Quer ",
  "7188": "lind",
  "7189": " por ",
  "7190": "tag",
  "7191": "Pont",
  "7192": "merg",
  "7193": "CU",
  "7194": "Nacional, nordeste, norte, ",
  "7195": "Curso de ",
  "7196": "imóvel",
  "7197": "ay ",
  "7198": "Worl",
  "7199": "Onlin",
  "7200": "é um dos ",
  "7201": "Ros",
  "7202": "Alemanha ",
  "7203": "feira ",
  "7204": "quarta-feira (",
  "7205": " de Mai",
  "7206": "Profission",
  "7207": "ers ",
  "7208": "Amer",
  "7209": "indesej",
  "7210": "pli",
  "7211": "ey",
  "7212": "estreia ",
  "7213": ":0",
  "7214": "digital ",
  "7215": "”, de ",
  "7216": "Andre",
  "7217": "Mu",
  "7218": "Adorei ",
  "7219": "Notíci",
  "7220": "[…]",
  "7221": "opse ",
  "7222": "xtrasiz",
  "7223": "Jardim ",
  "7224": "T&D\n\n",
  "7225": "amento\n\n",
  "7226": "a dat",
  "7227": "ifi",
  "7228": "venciment",
  "7229": "pessoa que ",
  "7230": "desempenho ",
  "7231": "específicos ",
  "7232": "4,",
  "7233": "Poder Legislativ",
  "7234": "56",
  "7235": "Poder Executivo ",
  "7236": "ux",
  "7237": "2 a ",
  "7238": "Projeto de ",
  "7239": "Econôm",
  "7240": "Art. 1",
  "7241": "onomia ",
  "7242": "erá a ",
  "7243": "ação;\n\n",
  "7244": "a fix",
  "7245": "divis",
  "7246": "facilmente ",
  "7247": "e;\n\n",
  "7248": "promover a ",
  "7249": "provid",
  "7250": "peculi",
  "7251": "orçamento ",
  "7252": "licenç",
  "7253": "houver ",
  "7254": "adour",
  "7255": "silênci",
  "7256": "ida a ",
  "7257": "resí",
  "7258": "resídu",
  "7259": "poder de ",
  "7260": "ósit",
  "7261": "apre",
  "7262": "desportiv",
  "7263": "competência do ",
  "7264": "guarda ",
  "7265": "explor",
  "7266": "União, ",
  "7267": "serviços e ",
  "7268": "ativo, ",
  "7269": "pena de ",
  "7270": "igual ",
  "7271": "da, ",
  "7272": "II ",
  "7273": "ais dos ",
  "7274": "e à ",
  "7275": "Interno ",
  "7276": "posse ",
  "7277": "cinco por ",
  "7278": "cinco por cent",
  "7279": "apur",
  "7280": "assuntos ",
  "7281": "opinião ",
  "7282": "; (Renumerado pela Emenda nº 1 de 25 de fevereiro de 1999).\n\nXX",
  "7283": "tomada de ",
  "7284": "dois terç",
  "7285": "a cri",
  "7286": ". No ",
  "7287": "horas, ",
  "7288": "cargos de ",
  "7289": "se o ",
  "7290": "cargo, ",
  "7291": "podendo ser ",
  "7292": "o municip",
  "7293": "sociedade, ",
  "7294": "comunidade ",
  "7295": "absoluta dos ",
  "7296": "Qualquer ",
  "7297": "criação e ",
  "7298": "idos na ",
  "7299": "parci",
  "7300": "discussão ",
  "7301": "devendo ",
  "7302": "e ou ",
  "7303": "servidor ",
  "7304": "a primeira ",
  "7305": "ocu",
  "7306": "desde que ",
  "7307": "anterior",
  "7308": "corrup",
  "7309": "horário ",
  "7310": "a este ",
  "7311": "nos termos do ",
  "7312": "ato do ",
  "7313": "áus",
  "7314": "deste artig",
  "7315": "autarqu",
  "7316": "extr",
  "7317": "motivo ",
  "7318": "deixar de ",
  "7319": "os, não ",
  "7320": "lhes ",
  "7321": "direção ",
  "7322": "aos seus ",
  "7323": "não\n\n",
  "7324": "íveis, ",
  "7325": "das\n\n",
  "7326": "ões do ",
  "7327": "Cab",
  "7328": "ir.\n\n",
  "7329": "espetácul",
  "7330": "estrutura ",
  "7331": "contabilidade ",
  "7332": "social e ",
  "7333": "nesses ",
  "7334": "ridade ",
  "7335": "sobr",
  "7336": "programação ",
  "7337": ". Na ",
  "7338": "ará a ",
  "7339": "a fís",
  "7340": "alização, ",
  "7341": "integração ",
  "7342": "favor",
  "7343": "produção, ",
  "7344": "uso do ",
  "7345": "trabalho\n\n",
  "7346": "infraestrutur",
  "7347": "grupos ",
  "7348": "rific",
  "7349": "cle",
  "7350": "Agr",
  "7351": "abandon",
  "7352": "qualidade de ",
  "7353": "compos",
  "7354": "ência.\n\n",
  "7355": "como, ",
  "7356": "as para o ",
  "7357": "democraci",
  "7358": "pais",
  "7359": "a a sua ",
  "7360": "dul",
  "7361": "club",
  "7362": "entes do ",
  "7363": "implement",
  "7364": "obst",
  "7365": "o Públ",
  "7366": "equili",
  "7367": "ipul",
  "7368": "cult",
  "7369": "emente, ",
  "7370": "televis",
  "7371": "ado da ",
  "7372": "Abri",
  "7373": "acrescent",
  "7374": "quinh",
  "7375": "alunos do ",
  "7376": "os (",
  "7377": "o praz",
  "7378": "conden",
  "7379": "nel",
  "7380": "prejud",
  "7381": "Serviço de ",
  "7382": "colun",
  "7383": "semana ",
  "7384": "bailar",
  "7385": "embora ",
  "7386": "atualmente ",
  "7387": "ader",
  "7388": "respir",
  "7389": "Porém, ",
  "7390": "am na ",
  "7391": "a mant",
  "7392": "real",
  "7393": "re, ",
  "7394": "quet",
  "7395": "incrível ",
  "7396": "história de ",
  "7397": "a mens",
  "7398": "de a ",
  "7399": "tev",
  "7400": "ly",
  "7401": "o livro ",
  "7402": "dificuldad",
  "7403": "nossas vid",
  "7404": "ânim",
  "7405": "lent",
  "7406": "métodos ",
  "7407": "r a ",
  "7408": "expect",
  "7409": "absor",
  "7410": "as mud",
  "7411": "rápido ",
  "7412": "am que ",
  "7413": "plet",
  "7414": "objetos ",
  "7415": "moviment",
  "7416": "instant",
  "7417": "Gerenci",
  "7418": "realizado ",
  "7419": "ava o ",
  "7420": "outro l",
  "7421": "Exist",
  "7422": "fazer um ",
  "7423": "Of",
  "7424": "ter sido ",
  "7425": "Maria ",
  "7426": "começou a ",
  "7427": "(e ",
  "7428": "concurso do ",
  "7429": "ência. ",
  "7430": "gra",
  "7431": "andr",
  "7432": "blogu",
  "7433": "Cal",
  "7434": "que vai ",
  "7435": "nome ",
  "7436": "brasileira, ",
  "7437": "hoje em ",
  "7438": "o) e ",
  "7439": "e?\n\n",
  "7440": "as, e ",
  "7441": "É um ",
  "7442": "project",
  "7443": "mão ",
  "7444": "multi",
  "7445": "Federal ",
  "7446": "houve ",
  "7447": "al) ",
  "7448": "al. A ",
  "7449": "/9",
  "7450": "não há ",
  "7451": "habitu",
  "7452": "Entretanto, ",
  "7453": "ancel",
  "7454": "conversão ",
  "7455": "amento. ",
  "7456": "IB",
  "7457": "a simpl",
  "7458": "ambiente.\n\n",
  "7459": "top",
  "7460": "es com ",
  "7461": "derrot",
  "7462": "ninguém ",
  "7463": "em seu ",
  "7464": "dê ",
  "7465": "pous",
  "7466": "21 ",
  "7467": "Jov",
  "7468": "jovens ",
  "7469": "efeitos colater",
  "7470": "apet",
  "7471": "basta ",
  "7472": "cada um ",
  "7473": "contudo ",
  "7474": "alimentos ",
  "7475": "imun",
  "7476": "icos.\n\n",
  "7477": "ax ",
  "7478": "organismo ",
  "7479": "e.\n\nO ",
  "7480": "corpo ",
  "7481": "inúmer",
  "7482": "Sim, ",
  "7483": "quím",
  "7484": "amplamente ",
  "7485": "olhar ",
  "7486": "fortes ",
  "7487": "usado ",
  "7488": "mulher",
  "7489": "qual é ",
  "7490": "complic",
  "7491": "eiro de ",
  "7492": "2017 ",
  "7493": "filhos de ",
  "7494": "livros que ",
  "7495": "ista. ",
  "7496": "medo de ",
  "7497": "os.\n\nA ",
  "7498": "íngua ",
  "7499": "antes. ",
  "7500": "patr",
  "7501": "ensiv",
  "7502": "algo que ",
  "7503": "empresa.\n\n",
  "7504": ".\n\nE ",
  "7505": "passando ",
  "7506": "pediu ",
  "7507": "dificuldade ",
  "7508": "máquin",
  "7509": "gross",
  "7510": "o que a ",
  "7511": "madrug",
  "7512": "eza ",
  "7513": "estúdi",
  "7514": "playlist",
  "7515": "dormir ",
  "7516": "me sentindo ",
  "7517": "shopp",
  "7518": "coisas, ",
  "7519": "o, as ",
  "7520": "ta ",
  "7521": "internet, ",
  "7522": "itib",
  "7523": "pratel",
  "7524": "ourn",
  "7525": "armáci",
  "7526": "áudi",
  "7527": "seri",
  "7528": "ick",
  "7529": " de março, 2018: ",
  "7530": "arthur",
  "7531": "românt",
  "7532": "vidos ",
  "7533": "ele é ",
  "7534": "G ",
  "7535": "ataque ",
  "7536": "o cabel",
  "7537": "ai, ",
  "7538": "radi",
  "7539": "curso",
  "7540": "ou mais ",
  "7541": "jardim ",
  "7542": "colat",
  "7543": "ÍVEL",
  "7544": ") no ",
  "7545": "coc",
  "7546": "mais, ",
  "7547": "pareci",
  "7548": "clientes e ",
  "7549": "ações dos 250 ",
  "7550": "ábr",
  "7551": "espect",
  "7552": "pós-",
  "7553": "Fest",
  "7554": "assess",
  "7555": "óni",
  "7556": "háb",
  "7557": "Recur",
  "7558": "objectiv",
  "7559": "número ",
  "7560": "Seu ",
  "7561": "encios",
  "7562": "precisa ser ",
  "7563": "para fazer ",
  "7564": "reflex",
  "7565": "oria da ",
  "7566": "hoje, ",
  "7567": "Estudos ",
  "7568": "Rio de Janeiro ",
  "7569": "mostrar ",
  "7570": "conect",
  "7571": "emporâne",
  "7572": "apresentação ",
  "7573": "produzir ",
  "7574": "a des",
  "7575": "acia ",
  "7576": "a’",
  "7577": ":3",
  "7578": "on, ",
  "7579": "2007",
  "7580": "2012",
  "7581": "ou para ",
  "7582": "ilustr",
  "7583": "as. A ",
  "7584": "entre o ",
  "7585": "os, como ",
  "7586": "ler, ",
  "7587": "petr",
  "7588": "literatur",
  "7589": "final do ",
  "7590": "recente ",
  "7591": "objetivos ",
  "7592": "ar como ",
  "7593": "[...",
  "7594": "Ri",
  "7595": "mul",
  "7596": "corpo",
  "7597": "- D",
  "7598": "VÁRI",
  "7599": "Vict",
  "7600": "atingir ",
  "7601": "económ",
  "7602": "ME ",
  "7603": "arranj",
  "7604": "páginas ",
  "7605": "poem",
  "7606": "dit",
  "7607": "prém",
  "7608": "VID",
  "7609": "Para quem ",
  "7610": "Soft",
  "7611": "irem ",
  "7612": "2016",
  "7613": "negócios ",
  "7614": "veloci",
  "7615": "Eduardo ",
  "7616": "oras ",
  "7617": "Festival de ",
  "7618": "Jesus",
  "7619": "z ",
  "7620": "Lond",
  "7621": "aterr",
  "7622": "portanto ",
  "7623": "caria ",
  "7624": "espos",
  "7625": "medida ",
  "7626": "Nacional ",
  "7627": "am por ",
  "7628": "começar a ",
  "7629": "por isso, ",
  "7630": "simul",
  "7631": "15h",
  "7632": "sen",
  "7633": "Outro ",
  "7634": "uma grande ",
  "7635": "fe ",
  "7636": "Nas ",
  "7637": "taxa de inscrição ",
  "7638": "Mod",
  "7639": "Espanh",
  "7640": "Exame ",
  "7641": "São Paulo, ",
  "7642": ").\n\nO ",
  "7643": "eleção ",
  "7644": "Oliv",
  "7645": "Civ",
  "7646": "17h",
  "7647": "Estão ",
  "7648": "a nas ",
  "7649": "uma de ",
  "7650": "teatr",
  "7651": "o da sua ",
  "7652": "feita ",
  "7653": "len",
  "7654": "Segunda ",
  "7655": "compreender ",
  "7656": "CCI",
  "7657": "a, é ",
  "7658": "jam",
  "7659": "ocorri",
  "7660": "bor",
  "7661": "até ao ",
  "7662": "oros",
  "7663": "novidade ",
  "7664": "Sobre ",
  "7665": "abet",
  "7666": "....",
  "7667": "rep",
  "7668": "garot",
  "7669": "a.\n\nE ",
  "7670": "sexual ",
  "7671": "eções ",
  "7672": "US ",
  "7673": "amente. ",
  "7674": "dia. ",
  "7675": "), em ",
  "7676": "Suprem",
  "7677": "Cheg",
  "7678": "isso.\n\n",
  "7679": ": O ",
  "7680": "diz que ",
  "7681": "e foi ",
  "7682": "agora, ",
  "7683": "entre em contato ",
  "7684": "ANTE ",
  "7685": "Dec",
  "7686": "os das ",
  "7687": "VO",
  "7688": "Netf",
  "7689": "ido. ",
  "7690": "imagem ",
  "7691": "abrir ",
  "7692": "a famíli",
  "7693": "impact",
  "7694": "Desc",
  "7695": "estági",
  "7696": "BLOG DO BIOJAR",
  "7697": "FAL",
  "7698": "MAIS",
  "7699": "A R",
  "7700": "SON",
  "7701": "A DE ",
  "7702": "ADOS ",
  "7703": "MELH",
  "7704": "Red",
  "7705": "ica: ",
  "7706": "Fiquei ",
  "7707": "Tenho interess",
  "7708": "guardo ",
  "7709": ". Am",
  "7710": "ine",
  "7711": "adores do ",
  "7712": "ádi",
  "7713": "Sistema de ",
  "7714": "Super",
  "7715": "/03/",
  "7716": "ações ________________________________",
  "7717": "ações ________________________________________________________________",
  "7718": "ações ________________________________________________________________________",
  "7719": "ações ________________________________________________________________________\n\n",
  "7720": "tivesse ",
  "7721": "W ",
  "7722": "Petr",
  "7723": "iológ",
  "7724": "mil pessoas ",
  "7725": "Imp",
  "7726": "loja ",
  "7727": "usuários ",
  "7728": "e, que ",
  "7729": "diferente ",
  "7730": "ocor",
  "7731": ".\n\n\n\nO ",
  "7732": "dá",
  "7733": "color",
  "7734": "dicion",
  "7735": "configur",
  "7736": "sap",
  "7737": "^^",
  "7738": ".\"\n\n",
  "7739": "oler",
  "7740": "carro ",
  "7741": "sistemas ",
  "7742": "pain",
  "7743": "filtr",
  "7744": "plataforma ",
  "7745": "a tão ",
  "7746": "das as ",
  "7747": "e B",
  "7748": "Lisbo",
  "7749": "_ Fil",
  "7750": "_ Filmo",
  "7751": "_ Filmow",
  "7752": "Receita Feder",
  "7753": "segunda-feira, ",
  "7754": "escritório ",
  "7755": "dose ",
  "7756": "45 ",
  "7757": "íri",
  "7758": "o long",
  "7759": "Cop",
  "7760": "se destac",
  "7761": "Facebook ",
  "7762": "Mon",
  "7763": "Aproveit",
  "7764": "antib",
  "7765": "antibi",
  "7766": "antibiót",
  "7767": "ón",
  "7768": "responsável por ",
  "7769": "item ",
  "7770": "Lar",
  "7771": "pe ",
  "7772": "maioria dos ",
  "7773": "inferno ",
  "7774": "orist",
  "7775": "ores do ",
  "7776": "y P",
  "7777": "Marcel",
  "7778": "ar!\n\n",
  "7779": "uu",
  "7780": "cerim",
  "7781": "orista ",
  "7782": "500 ",
  "7783": "domingo (",
  "7784": "Preench",
  "7785": "ência em ",
  "7786": "ocasi",
  "7787": "confira ",
  "7788": "categori",
  "7789": " de abril de 2018",
  "7790": "feminin",
  "7791": "depil",
  "7792": "usá-l",
  "7793": "Laur",
  "7794": "pris",
  "7795": "em “",
  "7796": ". Com ",
  "7797": "*-*\n\n",
  "7798": "Elvis ",
  "7799": "-o-",
  "7800": "estamp",
  "7801": "[…]\n\n",
  "7802": "Pára-qued",
  "7803": "own",
  "7804": "ado: ",
  "7805": "seios nas",
  "7806": "aboratóri",
  "7807": "(Fornec",
  "7808": "(Fornecedores ",
  "7809": "(Fornecedores M",
  "7810": "(Fornecedores Mog",
  "7811": "(Fornecedores Mogi das ",
  "7812": "(Fornecedores Mogi das Cruz",
  "7813": "inha de Te",
  "7814": "inha de Tearl",
  "7815": "Vale Presente ",
  "7816": "a Soma de ",
  "7817": "· ",
  "7818": "a seu ",
  "7819": "dé",
  "7820": "eficiência ",
  "7821": "fen",
  "7822": "a, de ",
  "7823": "feg",
  "7824": "bolo de ",
  "7825": "BOM ",
  "7826": "CONSE",
  "7827": "\n\nSeção II – ",
  "7828": "POD",
  "7829": "1 a ",
  "7830": "43",
  "7831": "79",
  "7832": "ativa ",
  "7833": "Assistência ",
  "7834": "Município de Bom Conselh",
  "7835": "da Re",
  "7836": "Brasil e ",
  "7837": "Pernambu",
  "7838": "política, ",
  "7839": "harm",
  "7840": "ino, ",
  "7841": "Município;\n\n",
  "7842": "ativa de ",
  "7843": "dar",
  "7844": "compatível ",
  "7845": "al;\n\nII – ",
  "7846": "Diretor de ",
  "7847": "ição.\n\n",
  "7848": ". Ao ",
  "7849": ":\n\nI – ",
  "7850": "União e do ",
  "7851": "co-",
  "7852": "Estado",
  "7853": "princípios ",
  "7854": "dispor ",
  "7855": "as para os ",
  "7856": "ísticas ",
  "7857": "conced",
  "7858": "traç",
  "7859": "trânsit",
  "7860": "vias ",
  "7861": "públicas ",
  "7862": "lix",
  "7863": "bem como a ",
  "7864": "meios de ",
  "7865": "icidade, ",
  "7866": "o do seu ",
  "7867": "vac",
  "7868": "expedi",
  "7869": "iniciativa ",
  "7870": "se refer",
  "7871": "uição ",
  "7872": "miner",
  "7873": "execução de ",
  "7874": "prévia ",
  "7875": "obras, ",
  "7876": "caracteriz",
  "7877": "adas pelo ",
  "7878": "exercido ",
  "7879": "ente ao ",
  "7880": "o legislativ",
  "7881": "das e ",
  "7882": "-lhes ",
  "7883": "respectivos ",
  "7884": "II, ",
  "7885": "2º, ",
  "7886": "a, os ",
  "7887": "inqu",
  "7888": "érit",
  "7889": "III - ",
  "7890": "da do ",
  "7891": "Tribunal de Cont",
  "7892": "XIX",
  "7893": "dos e ",
  "7894": "suspens",
  "7895": "solen",
  "7896": "Vereador ",
  "7897": "Presidente, ",
  "7898": "membros ",
  "7899": "parlament",
  "7900": "À ",
  "7901": "físicas ",
  "7902": "das pessoas ",
  "7903": "fals",
  "7904": "em os ",
  "7905": "prévi",
  "7906": "vo",
  "7907": "deverão ser ",
  "7908": "ará, ",
  "7909": "anteriormente ",
  "7910": "emunh",
  "7911": "eiro do ",
  "7912": "imento, ",
  "7913": "os.\n\nArt. ",
  "7914": "final ",
  "7915": "sociedad",
  "7916": "anex",
  "7917": "a sess",
  "7918": "valor da ",
  "7919": "remuneração ",
  "7920": "o é o ",
  "7921": "obras ",
  "7922": "utilidade ",
  "7923": "prêmi",
  "7924": "sujeit",
  "7925": "livre ",
  "7926": "declaração de ",
  "7927": "técnicos ",
  "7928": "vint",
  "7929": "vinte e ",
  "7930": "percentu",
  "7931": "os e nos ",
  "7932": "acum",
  "7933": "autorização legislativ",
  "7934": "indispens",
  "7935": "o máxim",
  "7936": "” e “",
  "7937": "jornal ",
  "7938": "licit",
  "7939": "disponibilidade ",
  "7940": "institucion",
  "7941": "-lhe ",
  "7942": "facult",
  "7943": "realizados ",
  "7944": "empreend",
  "7945": "início ",
  "7946": "os para o ",
  "7947": "conclus",
  "7948": "do art. ",
  "7949": "99",
  "7950": "adas na ",
  "7951": "municipais ",
  "7952": "devol",
  "7953": "ias e ",
  "7954": "com base ",
  "7955": "dos, ",
  "7956": "nos termos ",
  "7957": "queir",
  "7958": ", por ",
  "7959": "ia\n\n",
  "7960": "aplicação de ",
  "7961": "ilidade.\n\n",
  "7962": "funcionários ",
  "7963": "ADMINISTRAÇÃO ",
  "7964": "il.\n\n",
  "7965": "cál",
  "7966": "materiais ",
  "7967": "notific",
  "7968": "de modo a ",
  "7969": "ais,\n\n",
  "7970": "mist",
  "7971": "nele ",
  "7972": "antecip",
  "7973": "nos últimos ",
  "7974": "documento ",
  "7975": "imediat",
  "7976": "raç",
  "7977": "religi",
  "7978": "origem ",
  "7979": "alimentar ",
  "7980": "formação de ",
  "7981": ") a ",
  "7982": "8, ",
  "7983": "alização da ",
  "7984": "veget",
  "7985": "pequeno ",
  "7986": "icult",
  "7987": "pequenas ",
  "7988": "com seus ",
  "7989": "necessit",
  "7990": "ao men",
  "7991": "verificar ",
  "7992": "ercado de ",
  "7993": "a mulh",
  "7994": "em seus ",
  "7995": "equilíbri",
  "7996": "se for ",
  "7997": "Saúde, ",
  "7998": "federal ",
  "7999": "ÃO, ",
  "8000": "fundamental ",
  "8001": "a fre",
  "8002": "ências do ",
  "8003": ". Par",
  "8004": "importância da ",
  "8005": "formação ",
  "8006": "expressões ",
  "8007": "ado para o ",
  "8008": "física ",
  "8009": "ida por ",
  "8010": "acional ",
  "8011": "reconheciment",
  "8012": "representante ",
  "8013": "ará em ",
  "8014": "PRES",
  "8015": "NTE ",
  "8016": " – O ",
  "8017": "dess",
  "8018": "chap",
  "8019": "acolh",
  "8020": "intro",
  "8021": "Cidad",
  "8022": "\n\nÉ ",
  "8023": "alimentação ",
  "8024": "começar ",
  "8025": "restri",
  "8026": "porque a ",
  "8027": "ance ",
  "8028": "O A",
  "8029": "conhecida ",
  "8030": "sofre",
  "8031": "possuí",
  "8032": "Lim",
  "8033": "tantos ",
  "8034": "possibilidades ",
  "8035": "pensamentos ",
  "8036": "talent",
  "8037": "apresenta ",
  "8038": "Lembr",
  "8039": "continuar ",
  "8040": "atrás ",
  "8041": "como os ",
  "8042": "primordi",
  "8043": "Ali",
  "8044": "armos ",
  "8045": "a, sem ",
  "8046": "ar que o ",
  "8047": "pensar que ",
  "8048": "rapidamente ",
  "8049": "Govern",
  "8050": "ã, ",
  "8051": "Cir",
  "8052": "já foi ",
  "8053": "éni",
  "8054": "Goog",
  "8055": "o qual ",
  "8056": "él",
  "8057": "confess",
  "8058": "Brag",
  "8059": "como eu ",
  "8060": "mais uma ",
  "8061": "Pan",
  "8062": "a mist",
  "8063": "a mistura ",
  "8064": "ida, ",
  "8065": "quiser ",
  "8066": "blog e ",
  "8067": "t ",
  "8068": "convid",
  "8069": "o que os ",
  "8070": "dia e ",
  "8071": "Med",
  "8072": "nº ",
  "8073": "a fim de ",
  "8074": "qual a ",
  "8075": "o signific",
  "8076": ". Mas ",
  "8077": "apresentação de ",
  "8078": "Trata-se ",
  "8079": "volunt",
  "8080": "paralis",
  "8081": "matrícul",
  "8082": "ades",
  "8083": "eceu ",
  "8084": "as, mas ",
  "8085": "filha de ",
  "8086": "ome ",
  "8087": "o sobre ",
  "8088": "sant",
  "8089": "grit",
  "8090": "já não ",
  "8091": "vinh",
  "8092": "que eles ",
  "8093": "cruz",
  "8094": ": \"",
  "8095": "espalh",
  "8096": "22 ",
  "8097": "fibr",
  "8098": "ane",
  "8099": "o, já ",
  "8100": "vir a ",
  "8101": "inhos, ",
  "8102": "aumentar a ",
  "8103": "restr",
  "8104": "nós",
  "8105": "inger",
  "8106": "atenç",
  "8107": "a, como ",
  "8108": "ínt",
  "8109": "ferm",
  "8110": "eiramente ",
  "8111": "ar pelo ",
  "8112": "creme ",
  "8113": "se você ",
  "8114": "problema ",
  "8115": "comecei ",
  "8116": "ava a ",
  "8117": "es para ",
  "8118": "difícil de ",
  "8119": "múscul",
  "8120": "em cas",
  "8121": "governador ",
  "8122": "ganhou ",
  "8123": "vindo ",
  "8124": "precisa de ",
  "8125": "Manu",
  "8126": "manu",
  "8127": "198",
  "8128": "ie ",
  "8129": "ób",
  "8130": "48 ",
  "8131": "aw",
  "8132": "a mãe, ",
  "8133": "pela manhã, ",
  "8134": "Vai ",
  "8135": "condomíni",
  "8136": "ônib",
  "8137": "cliente, ",
  "8138": "não consegui ",
  "8139": "amos a ",
  "8140": "árv",
  "8141": "dando ",
  "8142": "voz ",
  "8143": "estados ",
  "8144": "o quanto ",
  "8145": "ill ",
  "8146": "nada, ",
  "8147": "cozinh",
  "8148": "pedr",
  "8149": "yu",
  "8150": "celular",
  "8151": "barrac",
  "8152": "o melh",
  "8153": "jant",
  "8154": "journ",
  "8155": "quanto a ",
  "8156": "mir",
  "8157": "veio, ",
  "8158": "mac",
  "8159": "ficando ",
  "8160": "pouco",
  "8161": "????",
  "8162": "INDA ",
  "8163": "modo de ",
  "8164": " O",
  "8165": "ô ",
  "8166": "consegue ",
  "8167": "fof",
  "8168": "elo",
  "8169": "tá ",
  "8170": "cronogram",
  "8171": "questões de ",
  "8172": "polit",
  "8173": "pé ",
  "8174": "oi",
  "8175": "onh",
  "8176": "bom, ",
  "8177": "ês de ",
  "8178": "Pom",
  "8179": "custo ",
  "8180": "serviços para ",
  "8181": "Aquisição do ",
  "8182": "programa de ",
  "8183": "elebr",
  "8184": "consultoria ",
  "8185": "Filme ",
  "8186": "Somos ",
  "8187": "usical ",
  "8188": "Gal",
  "8189": "Gest",
  "8190": "bust",
  "8191": "ando.\n\n",
  "8192": "cuidad",
  "8193": "PC ",
  "8194": "aprender ",
  "8195": "o “",
  "8196": "questão da ",
  "8197": "antrop",
  "8198": "Estados Unidos, ",
  "8199": " H",
  "8200": "Palavr",
  "8201": "acadêm",
  "8202": "Muitos ",
  "8203": "se torna ",
  "8204": "escreveu ",
  "8205": "críticas ",
  "8206": "Contudo, ",
  "8207": "Vol",
  "8208": "giu ",
  "8209": "a durante ",
  "8210": "terceira ",
  "8211": "oridade ",
  "8212": "radic",
  "8213": "sendo, ",
  "8214": "renç",
  "8215": "decorativ",
  "8216": "icos",
  "8217": "personagens ",
  "8218": "impossível ",
  "8219": "tes",
  "8220": "aparece ",
  "8221": "ação”, ",
  "8222": "protagon",
  "8223": "dizer que ",
  "8224": "padrões ",
  "8225": "Guerr",
  "8226": "ologias ",
  "8227": "Ide",
  "8228": "ideia de ",
  "8229": "Berlim",
  "8230": "luta ",
  "8231": "expost",
  "8232": "ados (",
  "8233": "Edit",
  "8234": "profun",
  "8235": "Recomend",
  "8236": "destaqu",
  "8237": "poes",
  "8238": "amanhã",
  "8239": "convit",
  "8240": "em-",
  "8241": "es!\n\n",
  "8242": "ei que ",
  "8243": "TAMBÉM ",
  "8244": "ar\" ",
  "8245": "permite ",
  "8246": "agradecer ",
  "8247": "esteve ",
  "8248": "MEN",
  "8249": "\n\n\n\nA ",
  "8250": "Ori",
  "8251": "clientes.\n\n",
  "8252": "Conheç",
  "8253": "Blog",
  "8254": "Recit",
  "8255": "Vill",
  "8256": "Escola ",
  "8257": "Document",
  "8258": "dos olh",
  "8259": "crav",
  "8260": "Franç",
  "8261": "Inglaterr",
  "8262": "VAL",
  "8263": "consig",
  "8264": "satisfatóri",
  "8265": "seus produt",
  "8266": "a, com ",
  "8267": "ando e ",
  "8268": "ar das ",
  "8269": "inha.\n\n",
  "8270": "o momento ",
  "8271": "fatores ",
  "8272": "professora ",
  "8273": "mob",
  "8274": "chegar a ",
  "8275": "justamente ",
  "8276": "acaba ",
  "8277": "bloque",
  "8278": "Rio Grande ",
  "8279": "Rio Grande do ",
  "8280": "ações em ",
  "8281": "processo seletivo ",
  "8282": "bolet",
  "8283": "berl",
  "8284": "dia (",
  "8285": "as inscrições para o ",
  "8286": "Exame Nacional do ",
  "8287": "Exame Nacional do Ensino Médi",
  "8288": "oferecidas ",
  "8289": "opções de ",
  "8290": "Amaz",
  "8291": "32 ",
  "8292": "2011",
  "8293": "Engenharia ",
  "8294": "Alguns ",
  "8295": "Tecnologia ",
  "8296": "distânci",
  "8297": " e a ",
  "8298": "a met",
  "8299": "Outra ",
  "8300": "escolhido ",
  "8301": "% de ",
  "8302": "não só ",
  "8303": "as\" ",
  "8304": "retom",
  "8305": "Porém ",
  "8306": "lado do ",
  "8307": "cuja ",
  "8308": "uss",
  "8309": "ére",
  "8310": "mãos",
  "8311": ". T",
  "8312": "também a ",
  "8313": "porno",
  "8314": "para o nosso ",
  "8315": "novamente ",
  "8316": "inser",
  "8317": "inicial ",
  "8318": "ende",
  "8319": "morreu ",
  "8320": "Nesse ",
  "8321": "antemente ",
  "8322": "..\n\n",
  "8323": "Cit",
  "8324": "as... ",
  "8325": "agradeç",
  "8326": "Outubr",
  "8327": "( ",
  "8328": "blog ",
  "8329": "alert",
  "8330": "recurso ",
  "8331": "L ",
  "8332": "got",
  "8333": "o A",
  "8334": "TER",
  "8335": "FUNÇÃO ",
  "8336": "2,",
  "8337": "muito de ",
  "8338": "A! ",
  "8339": "Natal ",
  "8340": "participar, ",
  "8341": "ideal para ",
  "8342": "conteúdos ",
  "8343": ")))\n\n",
  "8344": "...? ",
  "8345": "FOT",
  "8346": "INTERNET",
  "8347": "GENT",
  "8348": "AS E ",
  "8349": "FORM",
  "8350": "RSS",
  "8351": "ESTA ",
  "8352": "AGEM ",
  "8353": "ANTIG",
  "8354": "wik",
  "8355": "ITO ",
  "8356": ": http://",
  "8357": "tratament",
  "8358": "SEG",
  "8359": "MES",
  "8360": "MO ",
  "8361": "S, ",
  "8362": "PRI",
  "8363": "CAP",
  "8364": "atac",
  "8365": "T ",
  "8366": "SI",
  "8367": "moderno ",
  "8368": "espel",
  "8369": "espelh",
  "8370": "formato de ",
  "8371": "barrig",
  "8372": "De acordo com ",
  "8373": "Tenho interesse em ",
  "8374": "Gosto muito de ",
  "8375": "ler e ",
  "8376": "escrever.\n\n",
  "8377": "Olá, ",
  "8378": "os,",
  "8379": "EUA ",
  "8380": "regist",
  "8381": "Jen",
  "8382": "Congresso das ",
  "8383": "Cidades ",
  "8384": "\", disse ",
  "8385": "debate ",
  "8386": "a partir das ",
  "8387": "evento. ",
  "8388": "Paran",
  "8389": "parceria com a ",
  "8390": "Junt",
  "8391": "Dem",
  "8392": "alista ",
  "8393": "ano. ",
  "8394": "engenh",
  "8395": "no moment",
  "8396": "/06",
  "8397": "19h",
  "8398": "Hosp",
  "8399": "inclui ",
  "8400": "ográfic",
  "8401": "produção",
  "8402": "elo de ",
  "8403": "mestr",
  "8404": "arrast",
  "8405": "hat",
  "8406": "fluxo de ",
  "8407": "Cad",
  "8408": "Ferr",
  "8409": "espert",
  "8410": "vai se ",
  "8411": "do século ",
  "8412": "eter ",
  "8413": "Declar",
  "8414": "Impost",
  "8415": "completa ",
  "8416": "interfer",
  "8417": "Viagr",
  "8418": "e. As ",
  "8419": "calç",
  "8420": "ean",
  "8421": "o uma ",
  "8422": "agost",
  "8423": "email",
  "8424": "sua equip",
  "8425": "Carol",
  "8426": "oid",
  "8427": "robôs ",
  "8428": "pedaç",
  "8429": "científic",
  "8430": "Assunto: ",
  "8431": "Exempl",
  "8432": "o ministr",
  "8433": "look",
  "8434": "a sal",
  "8435": "dex",
  "8436": "kg de ",
  "8437": "3ª ",
  "8438": "pesar de ",
  "8439": "Nor",
  "8440": "age",
  "8441": "viagem ",
  "8442": ")-2013 ",
  "8443": "o Centr",
  "8444": "a do M",
  "8445": "Ib",
  "8446": "Formação de ",
  "8447": "ídias ",
  "8448": "Anexo ",
  "8449": "levou ",
  "8450": "cantora ",
  "8451": "fãs ",
  "8452": "por trás ",
  "8453": "na frente ",
  "8454": "Sapatilhas ",
  "8455": "sapat",
  "8456": "o mot",
  "8457": "Ste",
  "8458": "sala de ",
  "8459": "cá",
  "8460": "Metr",
  "8461": "será lanç",
  "8462": "ecemos ",
  "8463": "casamento, ",
  "8464": " de abril de 2018 (",
  "8465": "camada ",
  "8466": "Coloque ",
  "8467": "epis",
  "8468": "episódi",
  "8469": "em 1 de julho de 2014 às ",
  "8470": "Incr",
  "8471": "flagr",
  "8472": "Mad",
  "8473": "acel",
  "8474": "Postado por ",
  "8475": "Cost",
  "8476": "a Civil ",
  "8477": "Elvis",
  "8478": "Ver-o-",
  "8479": "Ver-o-Pes",
  "8480": "nao ",
  "8481": "êndi",
  "8482": "adorei ",
  "8483": "o de 2017 ",
  "8484": "ew",
  "8485": "Ford",
  "8486": "Lin",
  "8487": "(Fornecedores Mogi das Cruzes)\n\n",
  "8488": "utilizá-l",
  "8489": "Loja Soma de ",
  "8490": "is.\n\n",
  "8491": "prorr",
  "8492": "prorrog",
  "8493": "avis",
  "8494": "em cada ",
  "8495": "compras ",
  "8496": "a pelo ",
  "8497": "osas, ",
  "8498": "ante: ",
  "8499": "= ",
  "8500": "V ",
  "8501": "04 ",
  "8502": "cm",
  "8503": "-12",
  "8504": "4 a ",
  "8505": "ativa do ",
  "8506": "69",
  "8507": "Obr",
  "8508": "Orçament",
  "8509": "ORD",
  "8510": "defesa do ",
  "8511": "Urban",
  "8512": "democr",
  "8513": "ULG",
  "8514": "político-",
  "8515": "Band",
  "8516": "representativ",
  "8517": "criação, ",
  "8518": "requisitos ",
  "8519": "lei de ",
  "8520": "pelo menos, ",
  "8521": "ida pelo ",
  "8522": "gráficos ",
  "8523": ";\n\nII – ",
  "8524": "política de ",
  "8525": "relacionadas ",
  "8526": "o, quando ",
  "8527": "desta l",
  "8528": "diz respeit",
  "8529": "necessárias ",
  "8530": "Poder Executiv",
  "8531": "população, ",
  "8532": "cultural ",
  "8533": "competência da ",
  "8534": "Lei de ",
  "8535": "administração, ",
  "8536": "alien",
  "8537": "públicos",
  "8538": "eamento ",
  "8539": "estabelecimentos ",
  "8540": "comum",
  "8541": "ada dos ",
  "8542": "estacion",
  "8543": "anda, ",
  "8544": "legislação ",
  "8545": "captur",
  "8546": "animais ",
  "8547": "ias de ",
  "8548": "ambiental ",
  "8549": "o meio ",
  "8550": "planejamento, ",
  "8551": "° ",
  "8552": "sob pena de ",
  "8553": "no mesmo ",
  "8554": "financeiro ",
  "8555": "bens, ",
  "8556": "requisit",
  "8557": "definida ",
  "8558": "na Constituição Feder",
  "8559": "er as ",
  "8560": "almente",
  "8561": "plurianu",
  "8562": "operações de ",
  "8563": "uso e ",
  "8564": "missão de ",
  "8565": "órci",
  "8566": "dispõ",
  "8567": "§ 4",
  "8568": "apresentadas ",
  "8569": "isci",
  "8570": "ado pel",
  "8571": "diplom",
  "8572": "Mesa ",
  "8573": "imediatamente ",
  "8574": "Mes",
  "8575": "1/",
  "8576": "realização ",
  "8577": "todo e ",
  "8578": "forneced",
  "8579": "público e ",
  "8580": "ado com o ",
  "8581": "por seu ",
  "8582": "perío",
  "8583": "36",
  "8584": "autoridade ",
  "8585": "testemunh",
  "8586": "mencion",
  "8587": "comissão ",
  "8588": "cidadã",
  "8589": "estabilidade ",
  "8590": "aposentador",
  "8591": "projetos de lei ",
  "8592": "47",
  "8593": "absoluta dos membros da ",
  "8594": ";\n\nIII – ",
  "8595": "contas, ",
  "8596": "as medidas ",
  "8597": "obras e ",
  "8598": "ar;\n\n",
  "8599": "67",
  "8600": "anterior, ",
  "8601": "assem",
  "8602": "enviar ",
  "8603": "à\n\n",
  "8604": "como\n\n",
  "8605": "ação por ",
  "8606": "necessidade ",
  "8607": "balanç",
  "8608": "mês, ",
  "8609": "aplicar ",
  "8610": "verb",
  "8611": "investid",
  "8612": "de qualquer ",
  "8613": "sexta-feira, ",
  "8614": "pública e ",
  "8615": "cumprimento das ",
  "8616": "forneciment",
  "8617": "decisões ",
  "8618": "íne",
  "8619": "portadoras de ",
  "8620": "lat",
  "8621": "qualquer títul",
  "8622": "ínculo ",
  "8623": "destinados ",
  "8624": "to\n\n",
  "8625": "usuári",
  "8626": "idas, ",
  "8627": "praç",
  "8628": "idas em ",
  "8629": "trabalho.\n\n",
  "8630": "no\n\n",
  "8631": "específico",
  "8632": "dido ",
  "8633": "metade ",
  "8634": "pagamento ",
  "8635": "entes da ",
  "8636": "há mais de ",
  "8637": "percep",
  "8638": "a, se ",
  "8639": "ariamente, ",
  "8640": "conduz",
  "8641": "personalidade ",
  "8642": "a lev",
  "8643": "desenvolvimento de ",
  "8644": "funcionamento ",
  "8645": "medidas ",
  "8646": "os de",
  "8647": "cópi",
  "8648": "A\n\n",
  "8649": "ponder",
  "8650": "exteri",
  "8651": "segundo a ",
  "8652": "contribuição ",
  "8653": "isenção ",
  "8654": "possibilidade ",
  "8655": "preços ",
  "8656": "Fundo ",
  "8657": "correr ",
  "8658": "as met",
  "8659": "alterações ",
  "8660": "exclu",
  "8661": "despesas ",
  "8662": "Enquanto ",
  "8663": "supr",
  "8664": "discrimin",
  "8665": "o, sem ",
  "8666": "inclusão ",
  "8667": "receitas ",
  "8668": "fundos ",
  "8669": "especiais, ",
  "8670": "sexual, ",
  "8671": "convic",
  "8672": "justiç",
  "8673": "pob",
  "8674": "os e a ",
  "8675": "a fl",
  "8676": "verá ",
  "8677": "qualidade, ",
  "8678": "entes para ",
  "8679": "de forma ",
  "8680": "no âmbito ",
  "8681": "urbano ",
  "8682": "crescimento ",
  "8683": "todos, ",
  "8684": "acesso ",
  "8685": "convencion",
  "8686": "financi",
  "8687": "ambas ",
  "8688": "orgân",
  "8689": "ecolog",
  "8690": "os, os ",
  "8691": "valid",
  "8692": "e des",
  "8693": "capacidade de ",
  "8694": "ção dos ",
  "8695": "Sistema ",
  "8696": "de e ",
  "8697": "ele não ",
  "8698": "em todos os ",
  "8699": "aprend",
  "8700": "escolar",
  "8701": "franque",
  "8702": "diversific",
  "8703": "geral, ",
  "8704": "distribuição de ",
  "8705": "instalações ",
  "8706": "segurança e ",
  "8707": "obstácul",
  "8708": "isol",
  "8709": "equilibr",
  "8710": "desmat",
  "8711": "ósito ",
  "8712": "as e os ",
  "8713": "mês",
  "8714": "passa a ",
  "8715": "em qualquer ",
  "8716": "artigos ",
  "8717": "até que ",
  "8718": " de agosto",
  "8719": "querer ",
  "8720": "dade, ",
  "8721": "força ",
  "8722": "d, ",
  "8723": "prejudic",
  "8724": "bailarin",
  "8725": "falando ",
  "8726": "iram a ",
  "8727": "os! ",
  "8728": "Dessa ",
  "8729": "oura, ",
  "8730": "apon",
  "8731": "Escrev",
  "8732": "assust",
  "8733": "bab",
  "8734": "áli",
  "8735": "jeito ",
  "8736": "emocion",
  "8737": "cot",
  "8738": "entrev",
  "8739": "outub",
  "8740": "e são ",
  "8741": "milhares de ",
  "8742": "a.\n\nN",
  "8743": "busca ",
  "8744": "contrári",
  "8745": "humanos ",
  "8746": "afirma que ",
  "8747": "obra de ",
  "8748": "propõ",
  "8749": "ismo.\n\n",
  "8750": "difí",
  "8751": "Portanto, ",
  "8752": "Porque ",
  "8753": "até mesm",
  "8754": "situações ",
  "8755": "também.\n\n",
  "8756": "por mais ",
  "8757": "ins e ",
  "8758": "menor ",
  "8759": "Acredit",
  "8760": "ermos ",
  "8761": "volta ",
  "8762": "ver o ",
  "8763": "sempre",
  "8764": "Ou seja, ",
  "8765": "acima de ",
  "8766": "buscando ",
  "8767": "a fav",
  "8768": "eroport",
  "8769": "eiros e ",
  "8770": "clin",
  "8771": "contact",
  "8772": "e-mail",
  "8773": "Isto ",
  "8774": "NI",
  "8775": "últimas ",
  "8776": "época ",
  "8777": "pouquinh",
  "8778": "apel",
  "8779": "o. Não ",
  "8780": "record",
  "8781": "campo",
  "8782": "a mim ",
  "8783": "assistir ",
  "8784": "popular",
  "8785": "as vezes ",
  "8786": "sai ",
  "8787": "o)\n\n",
  "8788": "1 colh",
  "8789": "er (",
  "8790": "sop",
  "8791": "dour",
  "8792": "superfíci",
  "8793": "verde ",
  "8794": "a, eu ",
  "8795": "a em uma ",
  "8796": "vc",
  "8797": "Palm",
  "8798": "ótimo ",
  "8799": "o(",
  "8800": "apen",
  "8801": "k e ",
  "8802": "e” ",
  "8803": "No dia ",
  "8804": "Cali",
  "8805": "parabéns ",
  "8806": "ês. ",
  "8807": "as! ",
  "8808": "am.\n\n",
  "8809": "muito, ",
  "8810": "Não é ",
  "8811": "usar o ",
  "8812": "Brasileira de ",
  "8813": "Flor",
  "8814": "o text",
  "8815": "a esse ",
  "8816": "conceito de ",
  "8817": "Conserv",
  "8818": "ivel",
  "8819": "sequer ",
  "8820": "cancel",
  "8821": "posteri",
  "8822": "vizinh",
  "8823": "a sol",
  "8824": "interessante, ",
  "8825": "Superi",
  "8826": "consol",
  "8827": "Ativ",
  "8828": "o que foi ",
  "8829": "estejam ",
  "8830": "Sempre ",
  "8831": "i-",
  "8832": "ir os ",
  "8833": "deram ",
  "8834": "Senhor, ",
  "8835": "pared",
  "8836": "quebr",
  "8837": "líderes ",
  "8838": "ama, ",
  "8839": "mensagens ",
  "8840": "você, ",
  "8841": "verão ",
  "8842": ".\n\nEste ",
  "8843": "você já ",
  "8844": "fit",
  "8845": "óx",
  "8846": "cerebr",
  "8847": "café ",
  "8848": "perda de ",
  "8849": "da por ",
  "8850": "úr",
  "8851": "Parece ",
  "8852": "am uma ",
  "8853": "ritm",
  "8854": "ocorre ",
  "8855": "dieta ",
  "8856": "síndrom",
  "8857": "anot",
  "8858": "!\n\nO ",
  "8859": "o medic",
  "8860": "considerada ",
  "8861": "auxilia ",
  "8862": "problema de ",
  "8863": "A respeit",
  "8864": "A respeito de ",
  "8865": "dele, ",
  "8866": "né? ",
  "8867": "0,00 ",
  "8868": "finit",
  "8869": "di ",
  "8870": "pedir ",
  "8871": "eção de ",
  "8872": "Seman",
  "8873": "oth",
  "8874": "inglês: ",
  "8875": "o livr",
  "8876": "ograf",
  "8877": "que uma ",
  "8878": "yw",
  "8879": "livro que ",
  "8880": "ogr",
  "8881": "útil ",
  "8882": "300",
  "8883": "o mun",
  "8884": "tarde",
  "8885": "s em ",
  "8886": "voltou ",
  "8887": "à noite, ",
  "8888": "pizza e ",
  "8889": "pagu",
  "8890": "tenha sido ",
  "8891": "fim da noit",
  "8892": "depois, ",
  "8893": "a com o ",
  "8894": "ele foi ",
  "8895": "ava de ",
  "8896": "ade, ",
  "8897": "todo, ",
  "8898": "HE",
  "8899": "trabalhar ",
  "8900": "um pouco ",
  "8901": "amor, ",
  "8902": "mim, ",
  "8903": "molh",
  "8904": "imb",
  "8905": "ópol",
  "8906": "ow ",
  "8907": "rist",
  "8908": "ingles",
  "8909": "como é ",
  "8910": "let journ",
  "8911": "tarde, ",
  "8912": "i/",
  "8913": "ça, ",
  "8914": "dor de ",
  "8915": "larg",
  "8916": "anquec",
  "8917": "poç",
  "8918": "a tarde ",
  "8919": "i de ",
  "8920": "voltei ",
  "8921": "ÓR",
  "8922": "Bon",
  "8923": "organizando ",
  "8924": "o N",
  "8925": "MENTE ",
  "8926": "FAZ",
  "8927": "cheguei ",
  "8928": "cara de ",
  "8929": "carinh",
  "8930": "!!!!",
  "8931": "a mort",
  "8932": "sabia ",
  "8933": "exat",
  "8934": "sinusite, ",
  "8935": "tub",
  "8936": "a mud",
  "8937": "me deix",
  "8938": "a!",
  "8939": "quas",
  "8940": "aram o ",
  "8941": "\n\n\n\nS",
  "8942": "bairro ",
  "8943": "Comemor",
  "8944": "ábrica ",
  "8945": "alização do ",
  "8946": "/09",
  "8947": "elebrar ",
  "8948": "design ",
  "8949": "ativo do ",
  "8950": "O\n\n",
  "8951": "anos\n\n",
  "8952": "Din",
  "8953": "aria do ",
  "8954": "Pedr",
  "8955": "eléctri",
  "8956": "a do C",
  "8957": "aval",
  "8958": "custos ",
  "8959": "uras ",
  "8960": "Caminh",
  "8961": "Recursos ",
  "8962": "combust",
  "8963": "passado, ",
  "8964": "Chrom",
  "8965": "as. As ",
  "8966": "anos. ",
  "8967": "o um ",
  "8968": "…\n\nA ",
  "8969": "Guerreiro, ",
  "8970": "continuam ",
  "8971": "Profess",
  "8972": "diretor ",
  "8973": "ESP",
  "8974": "Bot",
  "8975": "É importante ",
  "8976": "o. Em ",
  "8977": "context",
  "8978": "contemporâne",
  "8979": "íg",
  "8980": "técnico ",
  "8981": "Garn",
  "8982": "precisamos ",
  "8983": "7, p. ",
  "8984": "icos de ",
  "8985": "autor, ",
  "8986": "suprem",
  "8987": "branco ",
  "8988": "invis",
  "8989": "a mostr",
  "8990": "privil",
  "8991": "privilégi",
  "8992": "análise ",
  "8993": "por meio da ",
  "8994": "acesso a ",
  "8995": "investigação ",
  "8996": "tradu",
  "8997": "textos ",
  "8998": "ado como ",
  "8999": "recep",
  "9000": "padrão ",
  "9001": "eira (",
  "9002": "sem a ",
  "9003": "brasileira ",
  "9004": "portanto, ",
  "9005": "Ramos, ",
  "9006": "particularmente ",
  "9007": "está a ",
  "9008": "ição do ",
  "9009": "ado “",
  "9010": "escritor ",
  "9011": "a aos ",
  "9012": "persp",
  "9013": "perspectiv",
  "9014": "sem o ",
  "9015": "african",
  "9016": "resgat",
  "9017": "além da ",
  "9018": "Hal",
  "9019": "a ainda ",
  "9020": "eficaz",
  "9021": "critic",
  "9022": "frac",
  "9023": "encontro ",
  "9024": "eric",
  "9025": "supost",
  "9026": "ais (",
  "9027": "onde os ",
  "9028": "brasileiro, ",
  "9029": "seriam ",
  "9030": "atores ",
  "9031": "Pen",
  "9032": "Receb",
  "9033": "sert",
  "9034": "icos. ",
  "9035": "Rio de Janeiro, ",
  "9036": "masculin",
  "9037": "Júni",
  "9038": "Santa C",
  "9039": "Universidade de ",
  "9040": "gasol",
  "9041": "emos que ",
  "9042": "!!!!\n\n",
  "9043": "Portugal ",
  "9044": "a”.\n\n",
  "9045": "índic",
  "9046": "ge",
  "9047": "opol",
  "9048": "Faç",
  "9049": "angu",
  "9050": "e...\n\n",
  "9051": "\" (",
  "9052": "variados ",
  "9053": "aventur",
  "9054": "ANTE",
  "9055": "Consultoria ",
  "9056": "Contáb",
  "9057": "investir ",
  "9058": "geração de ",
  "9059": "o modelo ",
  "9060": "amigos e ",
  "9061": "velocidade ",
  "9062": "São Paulo.\n\n",
  "9063": "crição da ",
  "9064": "Jan",
  "9065": "ata ",
  "9066": "Vir",
  "9067": "lojas ",
  "9068": "fornecer ",
  "9069": "conhece ",
  "9070": "pessoas, ",
  "9071": "o principal ",
  "9072": "parab",
  "9073": "a como um ",
  "9074": "o tamanh",
  "9075": "Alex",
  "9076": "conhecimentos ",
  "9077": "dicas para ",
  "9078": "livros e ",
  "9079": "dúvidas ",
  "9080": "por iss",
  "9081": "tema ",
  "9082": "dado ",
  "9083": "tex",
  "9084": "processo seletiv",
  "9085": "Aleg",
  "9086": ".edu.br",
  "9087": "valor de R$ ",
  "9088": "3.",
  "9089": "se inscrever ",
  "9090": "5,",
  "9091": "1 – ",
  "9092": "curso de ",
  "9093": "idades. ",
  "9094": "18:",
  "9095": "Brasília ",
  "9096": "o de 2013, ",
  "9097": "um grande ",
  "9098": "endereço eletrôn",
  "9099": "os candidatos ",
  "9100": "12h",
  "9101": "itor ",
  "9102": "entrar em ",
  "9103": "Santo ",
  "9104": "4.",
  "9105": "como: ",
  "9106": "Goi",
  "9107": "Campo ",
  "9108": "crever",
  "9109": "vestibular.",
  "9110": "ias, ",
  "9111": "Aplic",
  "9112": "pois o ",
  "9113": "UE",
  "9114": "Econom",
  "9115": "ia. ",
  "9116": "habilidades ",
  "9117": "sexta-feira (",
  "9118": ")\n\nA ",
  "9119": "a nesta ",
  "9120": "depois do ",
  "9121": "OAB",
  "9122": "conosc",
  "9123": "classe oper",
  "9124": "aria a ",
  "9125": "Lênin, ",
  "9126": "lugar.\n\n",
  "9127": "pontâne",
  "9128": "irmar",
  "9129": "fórmul",
  "9130": "organização de ",
  "9131": "por sua ",
  "9132": "tem que ",
  "9133": "dessas ",
  "9134": "hol",
  "9135": "irei ",
  "9136": "aqui no ",
  "9137": "cou",
  "9138": "masturb",
  "9139": "amos uma ",
  "9140": "declaração ",
  "9141": "repet",
  "9142": "PART",
  "9143": "Lig",
  "9144": "Jesus, ",
  "9145": "tem sido ",
  "9146": "conviv",
  "9147": "evolução ",
  "9148": "vá ",
  "9149": "espiritu",
  "9150": "Conv",
  "9151": "tempo para ",
  "9152": "o a Deus ",
  "9153": "os... ",
  "9154": "a, des",
  "9155": "aucom",
  "9156": "ócul",
  "9157": "rsrsrs",
  "9158": "email ",
  "9159": "Graç",
  "9160": "a nov",
  "9161": "Que tal ",
  "9162": "sort",
  "9163": ". El",
  "9164": ".º ",
  "9165": "tráfic",
  "9166": "ido na ",
  "9167": "E DO ",
  "9168": "SUA ",
  "9169": "demais. ",
  "9170": "suav",
  "9171": "deixe ",
  "9172": "o é uma ",
  "9173": "eliz ",
  "9174": "ezembr",
  "9175": "câ",
  "9176": "câmer",
  "9177": "feri",
  "9178": "Descubr",
  "9179": "HAC",
  "9180": ") (",
  "9181": "ÁT",
  "9182": "ES E ",
  "9183": "OK",
  "9184": "CIAL",
  "9185": "TEM",
  "9186": "os-",
  "9187": "ESTRUTUR",
  "9188": "SEGUR",
  "9189": "ADOR",
  "9190": "FER",
  "9191": "SEM ",
  "9192": "AND",
  "9193": "litr",
  "9194": "demor",
  "9195": "):\n\n",
  "9196": "depar",
  "9197": "quadri",
  "9198": "nomes ",
  "9199": "Pi",
  "9200": "auí",
  "9201": "Gosto de ",
  "9202": "mais sobre ",
  "9203": "IJ",
  "9204": "net",
  "9205": "mais informações.\n\n",
  "9206": "fantást",
  "9207": "sente ",
  "9208": "escrever e ",
  "9209": "Web",
  "9210": "ia em ",
  "9211": "Olá ",
  "9212": "Peç",
  "9213": "ando. ",
  "9214": "transmit",
  "9215": "fer ",
  "9216": "sites de ",
  "9217": "Indú",
  "9218": "Indústri",
  "9219": "intend",
  "9220": "Organização ",
  "9221": "técnicas ",
  "9222": "fortaleciment",
  "9223": "auditóri",
  "9224": "evento.\n\n",
  "9225": "cidades ",
  "9226": "Sim",
  "9227": "op ",
  "9228": "/03/2007",
  "9229": "a, um ",
  "9230": "delic",
  "9231": "para a sua ",
  "9232": ". Se ",
  "9233": "o, você ",
  "9234": "mos",
  "9235": "édico ",
  "9236": "ardo C",
  "9237": "Regul",
  "9238": "Sig",
  "9239": "tempo e ",
  "9240": "Instagram",
  "9241": "chat",
  "9242": "Fórum ",
  "9243": "Derma",
  "9244": "desenvolvido ",
  "9245": "lábi",
  "9246": "cabelos ",
  "9247": "elecion",
  "9248": "icicl",
  "9249": "icídi",
  "9250": "cresc",
  "9251": "ime",
  "9252": "Bem ",
  "9253": "toler",
  "9254": "unk",
  "9255": "eless ",
  "9256": "artph",
  "9257": "artphon",
  "9258": "conex",
  "9259": "imobili",
  "9260": "óis ",
  "9261": "clientes, ",
  "9262": "amarel",
  "9263": "a e com ",
  "9264": "Assess",
  "9265": "a em um ",
  "9266": "Natal, ",
  "9267": "Hel",
  "9268": "xí",
  "9269": "redon",
  "9270": "es na ",
  "9271": "a música ",
  "9272": "-SP",
  "9273": "ou as ",
  "9274": "cirurgia ",
  "9275": "minim",
  "9276": "Star ",
  "9277": "pela primeira ",
  "9278": "eles, ",
  "9279": "jogo, ",
  "9280": "foli",
  "9281": "mi",
  "9282": "29 ",
  "9283": "Ven",
  "9284": "Constituint",
  "9285": "carbon",
  "9286": "entrevista ",
  "9287": "prevent",
  "9288": "preventiv",
  "9289": "show ",
  "9290": "estão em ",
  "9291": "Reino ",
  "9292": "Reino Un",
  "9293": "e A",
  "9294": "notícias, ",
  "9295": "Marcadores: 2013, centro-oeste, ",
  "9296": "sudeste, sul\n\n",
  "9297": "Banco Centr",
  "9298": "BC",
  "9299": "missão ao ",
  "9300": "missão ao Curso de ",
  "9301": "ISS ",
  "9302": "obra, ",
  "9303": "pisc",
  "9304": "Secretaria de ",
  "9305": "equipe do ",
  "9306": "pastor ",
  "9307": "Ví",
  "9308": "Víde",
  "9309": "novidades ",
  "9310": "fotograf",
  "9311": "actividade ",
  "9312": "tiveram ",
  "9313": "ip ",
  "9314": "o local ",
  "9315": "parque ",
  "9316": "Ofer",
  "9317": "não é mesm",
  "9318": "400 ",
  "9319": "vended",
  "9320": "incríveis ",
  "9321": "São Paulo ",
  "9322": "linh",
  "9323": "érg",
  "9324": "acomod",
  "9325": "redor ",
  "9326": "o cres",
  "9327": "flex",
  "9328": "aliv",
  "9329": "Excel",
  "9330": "marcada ",
  "9331": "o tão ",
  "9332": "acon",
  "9333": "nich",
  "9334": "Imagem 5",
  "9335": "para um ",
  "9336": "artista ",
  "9337": "nove ",
  "9338": "He",
  "9339": "rigu",
  "9340": "Paz",
  "9341": "uar",
  "9342": "as foram ",
  "9343": "11/12/2018 ",
  "9344": "Fern",
  "9345": "Andrew ",
  "9346": "am do ",
  "9347": "homenagem ",
  "9348": "35 ",
  "9349": "eonato ",
  "9350": "da mesm",
  "9351": "eia de ",
  "9352": "Lap",
  "9353": "Capítulo ",
  "9354": "Ti",
  "9355": "sinusite aguda ",
  "9356": "ash",
  "9357": "ine Vitóri",
  "9358": "residenci",
  "9359": "pt ",
  "9360": "Capit",
  "9361": "ambos os ",
  "9362": "Responder ",
  "9363": "Dermar",
  "9364": "Dant",
  "9365": "Operação ",
  "9366": "Zeca Afonso ",
  "9367": "campe",
  "9368": "fofoc",
  "9369": "pincel",
  "9370": "Zer",
  "9371": "”, “",
  "9372": "Anexo III",
  "9373": "Anexo III.",
  "9374": "Windo",
  "9375": "Window",
  "9376": "data de ",
  "9377": "2. O ",
  "9378": "https",
  "9379": "https://",
  "9380": "valor do ",
  "9381": "ativo e ",
  "9382": "termos ",
  "9383": "responsável pelo ",
  "9384": "ido em ",
  "9385": "Digit",
  "9386": "a fáci",
  "9387": "simples, ",
  "9388": "ideal ",
  "9389": "Especi",
  "9390": "vál",
  "9391": "Aç",
  "9392": "gul",
  "9393": "amento: ",
  "9394": "1°",
  "9395": "Comiss",
  "9396": "do Vice-",
  "9397": "Municipais ",
  "9398": "Segurança ",
  "9399": "ETIV",
  "9400": "Previdência ",
  "9401": "Fam",
  "9402": "X – ",
  "9403": "Proteção ",
  "9404": "ricos ",
  "9405": "DIS",
  "9406": "Constituição da Re",
  "9407": "do Estado de ",
  "9408": "promulg",
  "9409": "Poderes ",
  "9410": "do Município, ",
  "9411": "ímbol",
  "9412": "divisão ",
  "9413": "fus",
  "9414": "inferi",
  "9415": "emitéri",
  "9416": "Geo",
  "9417": "o. N",
  "9418": "observadas as ",
  "9419": "possível, ",
  "9420": "geo",
  "9421": "Distrito ",
  "9422": "march",
  "9423": "Art. 8",
  "9424": "al;\n\nIII – ",
  "9425": "ou quando ",
  "9426": "fará ",
  "9427": "Direit",
  "9428": "sem prejuíz",
  "9429": "organizar e ",
  "9430": "patrimônio ",
  "9431": "administração pública ",
  "9432": "administração pública diret",
  "9433": "normas de ",
  "9434": "rural, ",
  "9435": ";\n\nXX",
  "9436": "iner",
  "9437": "horários ",
  "9438": "propag",
  "9439": "polícia ",
  "9440": "apreend",
  "9441": "defesa de ",
  "9442": "colaboração ",
  "9443": "com a União ",
  "9444": "com a União e o ",
  "9445": "regular ",
  "9446": "zel",
  "9447": "Federal, ",
  "9448": "Art. 12",
  "9449": "observado o ",
  "9450": "itivo ",
  "9451": "disposto no ",
  "9452": "atos, ",
  "9453": "situação ",
  "9454": "distinção ",
  "9455": "Poder Públ",
  "9456": "ativos, ",
  "9457": "idos os ",
  "9458": "sessão legislativ",
  "9459": "legislatur",
  "9460": "diretrizes ",
  "9461": "autorização para ",
  "9462": "forma e ",
  "9463": "imóveis ",
  "9464": "aquisição de ",
  "9465": "salvo ",
  "9466": "quando se trat",
  "9467": "Município.\n\n",
  "9468": "Regimento ",
  "9469": "casos previstos em ",
  "9470": "153, ",
  "9471": "§ 2º, ",
  "9472": "I, da Constituição Feder",
  "9473": "não poderá ",
  "9474": "5%",
  "9475": "ar informações ",
  "9476": "; (Renumerado pela Emenda nº 1 de 25 de fevereiro de 1999).\n\nX",
  "9477": "entidades da ",
  "9478": "II - ",
  "9479": "adores",
  "9480": "Alter",
  "9481": "cer, ",
  "9482": "orçamentária, ",
  "9483": "operacion",
  "9484": "patrimoni",
  "9485": "dois anos, ",
  "9486": "subseqü",
  "9487": "2 de ",
  "9488": "automaticamente ",
  "9489": "os quais ",
  "9490": "superior a ",
  "9491": "administração direta, ",
  "9492": "acerc",
  "9493": "exercício do ",
  "9494": "idas no ",
  "9495": "civil, ",
  "9496": "as.\n\nArt. ",
  "9497": "um terç",
  "9498": "entre outras ",
  "9499": "inconstitucion",
  "9500": "intervenção ",
  "9501": "o será ",
  "9502": "amento dos ",
  "9503": "d) ",
  "9504": "33",
  "9505": "popular, ",
  "9506": "reuniões ",
  "9507": "às suas ",
  "9508": "aumento da ",
  "9509": "Secretari",
  "9510": "órgãos e ",
  "9511": "48",
  "9512": "defend",
  "9513": "considerados ",
  "9514": "rejeit",
  "9515": "ressalvados os ",
  "9516": "não, ",
  "9517": "idas pelo ",
  "9518": "legais, ",
  "9519": "desde a ",
  "9520": "áusula ",
  "9521": "uniform",
  "9522": "fora da ",
  "9523": "defender ",
  "9524": "ias",
  "9525": "prazo ",
  "9526": "sua\n\n",
  "9527": "Fisc",
  "9528": "pedid",
  "9529": "omit",
  "9530": "ir-se ",
  "9531": "interesses ",
  "9532": "7. ",
  "9533": "e aos ",
  "9534": "ores\n\n",
  "9535": "suas\n\n",
  "9536": "uma\n\n",
  "9537": "concursos ",
  "9538": "entes em ",
  "9539": "grau",
  "9540": "titulares de ",
  "9541": "or\n\n",
  "9542": "acumul",
  "9543": "as condições ",
  "9544": "concurso de ",
  "9545": "ato e ",
  "9546": "vínculo ",
  "9547": "ocas",
  "9548": "horári",
  "9549": "por\n\n",
  "9550": "ano e ",
  "9551": "acordo com o ",
  "9552": "indo, ",
  "9553": "comunidades ",
  "9554": "numer",
  "9555": "devidamente ",
  "9556": "ada nos ",
  "9557": "admiss",
  "9558": "modific",
  "9559": "local de ",
  "9560": "unific",
  "9561": "educação, ",
  "9562": "o, ao ",
  "9563": "utiv",
  "9564": "interrup",
  "9565": "especial de ",
  "9566": "alidade.\n\n",
  "9567": "segurança\n\n",
  "9568": "hier",
  "9569": "ão,\n\n",
  "9570": "ônom",
  "9571": "típ",
  "9572": "força de ",
  "9573": "direito a ",
  "9574": "idades\n\n",
  "9575": "Jur",
  "9576": "disposições ",
  "9577": "circunstânci",
  "9578": "aria, ",
  "9579": "instru",
  "9580": "os impost",
  "9581": "forma a ",
  "9582": "propriedad",
  "9583": "ados ao ",
  "9584": "iluminação ",
  "9585": "bens e ",
  "9586": "dos recursos ",
  "9587": "ível e ",
  "9588": "investimentos ",
  "9589": "haverá ",
  "9590": "financeira ",
  "9591": "previsão ",
  "9592": "idas e ",
  "9593": "té ",
  "9594": "Art. 16",
  "9595": "ilização ",
  "9596": "teste ",
  "9597": "ência no ",
  "9598": "priorit",
  "9599": "especiais ",
  "9600": "construção de ",
  "9601": "as empresas ",
  "9602": "enha a ",
  "9603": "turíst",
  "9604": "racion",
  "9605": "meios ",
  "9606": "amentos\n\n",
  "9607": "procedimentos de ",
  "9608": "ei\n\n",
  "9609": "adas ao ",
  "9610": "úcle",
  "9611": "manutenção de ",
  "9612": "associações ",
  "9613": "produtores ",
  "9614": "alimentares ",
  "9615": "familiares, ",
  "9616": "alidade",
  "9617": "reabilit",
  "9618": "físicas, ",
  "9619": "adequada ",
  "9620": "er do ",
  "9621": "nico de ",
  "9622": "a mulher ",
  "9623": "ico. ",
  "9624": "necessário, ",
  "9625": "até os ",
  "9626": "UC",
  "9627": "ULT",
  "9628": "zer",
  "9629": "ência na ",
  "9630": "público em ",
  "9631": "material ",
  "9632": "ência a ",
  "9633": "não-",
  "9634": "ções.\n\n",
  "9635": "etras e ",
  "9636": "estadual ",
  "9637": "democrat",
  "9638": "criatividade ",
  "9639": "alismo ",
  "9640": "tratamento da ",
  "9641": "am no ",
  "9642": "trabalhadores ",
  "9643": "preconceit",
  "9644": "substânci",
  "9645": "Crianç",
  "9646": "Ministério Públ",
  "9647": "política e ",
  "9648": "abrig",
  "9649": "o para as ",
  "9650": "País ",
  "9651": "técnica ",
  "9652": "entemente, ",
  "9653": "aconselh",
  "9654": "eni",
  "9655": "critérios de ",
  "9656": "publicação ",
  "9657": "data da ",
  "9658": "abin",
  "9659": "abinet",
  "9660": "Intro",
  "9661": "exce",
  "9662": "1º",
  "9663": "a\n\n“Art. ",
  "9664": "des, ",
  "9665": "ição",
  "9666": "am a vigorar com a seguinte redação:\n\n",
  "9667": "dia.\n\n",
  "9668": "a sendo ",
  "9669": "corren",
  "9670": "rá ",
  "9671": "introduz",
  "9672": "adoras ",
  "9673": "expressão ",
  "9674": "as mod",
  "9675": "elét",
  "9676": "articul",
  "9677": "transt",
  "9678": "alidade. ",
  "9679": "acabam ",
  "9680": "atlet",
  "9681": "escond",
  "9682": "japon",
  "9683": "Limit",
  "9684": "a).\n\n",
  "9685": "quanto mais ",
  "9686": "principalmente, ",
  "9687": "feliz com ",
  "9688": "és de ",
  "9689": "o mund",
  "9690": "pessoas de ",
  "9691": "lingu",
  "9692": "dificuldades ",
  "9693": "acional, ",
  "9694": "DV",
  "9695": "impression",
  "9696": "sofri",
  "9697": "o in",
  "9698": "medo ",
  "9699": "oso e ",
  "9700": "está sempre ",
  "9701": "s para ",
  "9702": "eis de ",
  "9703": "da.\n\n",
  "9704": "insist",
  "9705": "coração ",
  "9706": "dos quais ",
  "9707": "pontu",
  "9708": "certos ",
  "9709": "as à ",
  "9710": "a dar ",
  "9711": "mais do que ",
  "9712": "propósit",
  "9713": "dentro e ",
  "9714": "reflet",
  "9715": "paix",
  "9716": "Dr. ",
  "9717": "significativ",
  "9718": "chegar à ",
  "9719": "Existem ",
  "9720": "al, que ",
  "9721": "as mulheres ",
  "9722": "culinári",
  "9723": "e\" ",
  "9724": "Imag",
  "9725": "sentido de ",
  "9726": "You",
  "9727": "Tub",
  "9728": "querid",
  "9729": "quent",
  "9730": "ingredientes ",
  "9731": "são muito ",
  "9732": "na minha ",
  "9733": "diâmetr",
  "9734": "graus ",
  "9735": "Queria ",
  "9736": "saber se ",
  "9737": "certo",
  "9738": "tente ",
  "9739": "usam ",
  "9740": "orgulh",
  "9741": "brinque",
  "9742": "álb",
  "9743": "a muitos ",
  "9744": "eu sou ",
  "9745": "a leg",
  "9746": "Haverá ",
  "9747": "pend",
  "9748": "contempl",
  "9749": "corrigir ",
  "9750": "ter, ",
  "9751": "e em um ",
  "9752": "usucap",
  "9753": "estar na ",
  "9754": "ante em ",
  "9755": "aver",
  "9756": "de modo ",
  "9757": "a qualquer ",
  "9758": "também pode ",
  "9759": "optar por ",
  "9760": "roteir",
  "9761": "a deix",
  "9762": "B) ",
  "9763": "aldo ",
  "9764": "também para ",
  "9765": "sever",
  "9766": "-C",
  "9767": "módul",
  "9768": "nica ",
  "9769": "eu o ",
  "9770": "Det",
  "9771": "o site ",
  "9772": "ou ao ",
  "9773": "ou o seu ",
  "9774": "mur",
  "9775": "se des",
  "9776": "ão em ",
  "9777": "inimigo ",
  "9778": "exalt",
  "9779": "repous",
  "9780": "19 ",
  "9781": "meg",
  "9782": "o mercado ",
  "9783": "a Muit",
  "9784": "Dias ",
  "9785": "cardí",
  "9786": "o. D",
  "9787": "EIRA ",
  "9788": "esteja ",
  "9789": "abordagem ",
  "9790": "insul",
  "9791": "queim",
  "9792": "arroz",
  "9793": "inúmeras ",
  "9794": "ãest",
  "9795": "ais, como ",
  "9796": "Me ",
  "9797": "Normalmente ",
  "9798": "Log",
  "9799": "o, como ",
  "9800": "Na verdade, ",
  "9801": "Esses ",
  "9802": "produtos de ",
  "9803": "deter ",
  "9804": "na hor",
  "9805": "sintomas ",
  "9806": "mág",
  "9807": "marketing e ",
  "9808": "lemb",
  "9809": "mais. ",
  "9810": "o.\n\nPara ",
  "9811": "que são ",
  "9812": "inteir",
  "9813": "Hollyw",
  "9814": "Hollywo",
  "9815": "pop",
  "9816": "ograp",
  "9817": "ograph",
  "9818": "demasi",
  "9819": "-nos ",
  "9820": "as do seu ",
  "9821": "o é um ",
  "9822": "cheio de ",
  "9823": "frases ",
  "9824": "asão ",
  "9825": "Ps",
  "9826": "e P",
  "9827": ".\n\nNa ",
  "9828": "Ann",
  "9829": "eca ",
  "9830": "zinha ",
  "9831": "organizei ",
  "9832": "cox",
  "9833": "horário de ",
  "9834": "passei ",
  "9835": "fim da noite\n\n",
  "9836": "acabou ",
  "9837": "tatu",
  "9838": "dona ",
  "9839": "dela, ",
  "9840": "dó",
  "9841": "ansiedade, ",
  "9842": "aí no ",
  "9843": "terapia, ",
  "9844": "yugi",
  "9845": "riv",
  "9846": "o car",
  "9847": "u\n\n",
  "9848": "exausta, ",
  "9849": "filme, ",
  "9850": "sobranc",
  "9851": "sobrancelh",
  "9852": "o moç",
  "9853": "problema do ",
  "9854": "conseguimos ",
  "9855": "eton",
  "9856": "i o ",
  "9857": "mach",
  "9858": "caiu ",
  "9859": "OU",
  "9860": "vide",
  "9861": "ficaram ",
  "9862": "embora, ",
  "9863": "caseir",
  "9864": "vim ",
  "9865": "bullet journ",
  "9866": "lanch",
  "9867": ") o ",
  "9868": "tro",
  "9869": "chá ",
  "9870": "ORR",
  "9871": "SIM",
  "9872": "vidr",
  "9873": "ia (",
  "9874": "ai de ",
  "9875": "parar de ",
  "9876": "MP",
  "9877": "terapia ",
  "9878": "ago",
  "9879": "coisa que ",
  "9880": "ine, ",
  "9881": "khal",
  "9882": "trouxe ",
  "9883": "tou, ",
  "9884": "imar",
  "9885": "a vida ",
  "9886": "chocolat",
  "9887": "édic",
  "9888": "s/",
  "9889": "Assim, ",
  "9890": "camiset",
  "9891": "alf",
  "9892": "' ",
  "9893": "ENEM",
  "9894": "estou a ",
  "9895": "passado ",
  "9896": "a realidade ",
  "9897": "áculo ",
  "9898": "Aquisição da ",
  "9899": "DEM",
  "9900": "danç",
  "9901": "Exp",
  "9902": "Oeiras.\n\n",
  "9903": "Exposição ",
  "9904": "ica em ",
  "9905": "produção do ",
  "9906": "a”\n\n",
  "9907": "o musical ",
  "9908": "amentos para ",
  "9909": "hábit",
  "9910": "aconteciment",
  "9911": "il do ",
  "9912": "Promov",
  "9913": "inaugur",
  "9914": "a…\n\n",
  "9915": "Sint",
  "9916": "os.",
  "9917": "década de ",
  "9918": "o em um ",
  "9919": "nação, ",
  "9920": "eu e ",
  "9921": "lânt",
  "9922": "Hoje, ",
  "9923": "os de uma ",
  "9924": "UER",
  "9925": "Pret",
  "9926": "Guerreiro ",
  "9927": "Gilro",
  "9928": "no Brasil",
  "9929": "gener",
  "9930": "report",
  "9931": "estudantes ",
  "9932": "ática e ",
  "9933": "ceg",
  "9934": "e, em ",
  "9935": "surgiu ",
  "9936": "fres",
  "9937": "emos, ",
  "9938": "1957, p. ",
  "9939": "segundo o ",
  "9940": "a. Os ",
  "9941": "classe",
  "9942": "Fre",
  "9943": ", como ",
  "9944": "yr",
  "9945": "“N",
  "9946": "trop",
  "9947": "matu",
  "9948": "o negr",
  "9949": "nacional ",
  "9950": "crítica ",
  "9951": "ães ",
  "9952": "nome da ",
  "9953": "aqui: ",
  "9954": "pensament",
  "9955": "globalização ",
  "9956": "al S",
  "9957": "estad",
  "9958": "diferenças ",
  "9959": "idos e ",
  "9960": "Objetiv",
  "9961": "a sempre ",
  "9962": "por meio do ",
  "9963": "promover ",
  "9964": "e\n\nO ",
  "9965": "a. Mas ",
  "9966": "FM",
  "9967": "exclus",
  "9968": "modelos ",
  "9969": "americ",
  "9970": "Argent",
  "9971": "Public",
  "9972": "Universidade Federal de ",
  "9973": "Alun",
  "9974": "ado!\n\n",
  "9975": "protest",
  "9976": "...\n\nA ",
  "9977": "VÁRIOS ",
  "9978": "anos em ",
  "9979": "a: “",
  "9980": "ANÇA ",
  "9981": "vez de ",
  "9982": "os...\n\n",
  "9983": "ada! ",
  "9984": "Mesmo ",
  "9985": ".\n\nMas ",
  "9986": "ofic",
  "9987": "o tip",
  "9988": "sincer",
  "9989": "faça ",
  "9990": "algu",
  "9991": "éner",
  "9992": "a notíci",
  "9993": "o de 197",
  "9994": "Acompanh",
  "9995": "e este ",
  "9996": "Orient",
  "9997": "tantas ",
  "9998": "que ela ",
  "9999": "a entre ",
  "10000": "a fund",
  "10001": "apresentou ",
  "10002": "ariam ",
  "10003": "consultori",
  "10004": "empresas que ",
  "10005": "a faci",
  "10006": "seu negóci",
  "10007": "processos, ",
  "10008": "paco",
  "10009": "e seu ",
  "10010": "cov",
  "10011": "a Art",
  "10012": "Gaz",
  "10013": "Recital de ",
  "10014": "Wal",
  "10015": "Bur",
  "10016": "presente no ",
  "10017": "Concert",
  "10018": "ouz",
  "10019": "DIA ",
  "10020": "abaixo ",
  "10021": "comérci",
  "10022": "quem está ",
  "10023": "pescaria ",
  "10024": "especial para ",
  "10025": "É uma ",
  "10026": "sarg",
  "10027": "terem ",
  "10028": "os é ",
  "10029": "Rei ",
  "10030": "entar ",
  "10031": "peixe ",
  "10032": "cá ",
  "10033": "hehe",
  "10034": "é preciso ",
  "10035": "ado – ",
  "10036": "essencial para ",
  "10037": "em as ",
  "10038": "Rio Grande do Sul",
  "10039": "ologia de ",
  "10040": "da N",
  "10041": "Com a ",
  "10042": "facul",
  "10043": "60 ",
  "10044": "Uberl",
  "10045": "Uberlân",
  "10046": "recebe ",
  "10047": "cursos de gradu",
  "10048": " de abril",
  "10049": "o candidato ",
  "10050": "2 – ",
  "10051": "Liter",
  "10052": "o V",
  "10053": "de R$ ",
  "10054": "garante ",
  "10055": "a fas",
  "10056": "da Universidade ",
  "10057": "fica em ",
  "10058": "Universidade Federal do ",
  "10059": "Espírito ",
  "10060": "), que ",
  "10061": "Arquitet",
  "10062": "eterinári",
  "10063": "o Soci",
  "10064": ",00",
  "10065": "Elimin",
  "10066": "). A ",
  "10067": "Inscri",
  "10068": "curr",
  "10069": "ente a ",
  "10070": "Que",
  "10071": "amor de ",
  "10072": "Você já ",
  "10073": "purific",
  "10074": "7.",
  "10075": "o milit",
  "10076": "Rosa ",
  "10077": "Luxemb",
  "10078": "Luxemburg",
  "10079": "chevi",
  "10080": "desde o ",
  "10081": "Qual ",
  "10082": "Que fazer? ",
  "10083": "lutas ",
  "10084": "deb",
  "10085": "jamais ",
  "10086": "sobret",
  "10087": "questão de ",
  "10088": "denunci",
  "10089": "isso. ",
  "10090": "atitude ",
[...]
